unsigned char source_seeking[] = {
        0x18, 0x00, 0x00, 0x00, 0x54, 0x46, 0x4c, 0x33, 0x00, 0x00, 0x0e, 0x00,
        0x18, 0x00, 0x04, 0x00, 0x08, 0x00, 0x0c, 0x00, 0x10, 0x00, 0x14, 0x00,
        0x0e, 0x00, 0x00, 0x00, 0x03, 0x00, 0x00, 0x00, 0x80, 0x0b, 0x00, 0x00,
        0x0c, 0x00, 0x00, 0x00, 0x10, 0x00, 0x00, 0x00, 0x20, 0x00, 0x00, 0x00,
        0x01, 0x00, 0x00, 0x00, 0xb4, 0x04, 0x00, 0x00, 0x0f, 0x00, 0x00, 0x00,
        0x54, 0x4f, 0x43, 0x4f, 0x20, 0x43, 0x6f, 0x6e, 0x76, 0x65, 0x72, 0x74,
        0x65, 0x64, 0x2e, 0x00, 0x0b, 0x00, 0x00, 0x00, 0x94, 0x04, 0x00, 0x00,
        0x48, 0x04, 0x00, 0x00, 0xe0, 0x03, 0x00, 0x00, 0x40, 0x02, 0x00, 0x00,
        0x38, 0x02, 0x00, 0x00, 0x1c, 0x02, 0x00, 0x00, 0x14, 0x02, 0x00, 0x00,
        0xb4, 0x01, 0x00, 0x00, 0xac, 0x01, 0x00, 0x00, 0x0c, 0x00, 0x00, 0x00,
        0x04, 0x00, 0x00, 0x00, 0x70, 0xf5, 0xff, 0xff, 0xea, 0xfb, 0xff, 0xff,
        0x04, 0x00, 0x00, 0x00, 0x90, 0x01, 0x00, 0x00, 0xad, 0xb8, 0xb5, 0x9f,
        0xc7, 0x8f, 0xad, 0xac, 0xb0, 0x9c, 0xa2, 0xa1, 0xb4, 0xc0, 0xa4, 0xb0,
        0xa0, 0x99, 0xae, 0xb8, 0xaf, 0xbd, 0x90, 0x91, 0xc5, 0xa1, 0xc2, 0xa9,
        0x91, 0xa2, 0xa1, 0xc3, 0x98, 0xac, 0x76, 0xc4, 0xb8, 0xa9, 0x9e, 0x92,
        0x8f, 0x87, 0x90, 0x8d, 0xba, 0xb3, 0xaf, 0x9e, 0x89, 0xad, 0x8a, 0xb3,
        0xc0, 0xb9, 0x89, 0x8e, 0xb5, 0xba, 0x9f, 0x8f, 0xac, 0x92, 0x8d, 0xa4,
        0x99, 0xbf, 0xa6, 0xbe, 0x9b, 0xaa, 0xb3, 0x8e, 0x89, 0xaf, 0x9d, 0x9b,
        0xa7, 0x99, 0xaa, 0xbe, 0x9a, 0x8b, 0x89, 0x8c, 0x95, 0xc0, 0x9e, 0xbd,
        0x98, 0xb6, 0xaf, 0xbd, 0x9f, 0xb7, 0x9c, 0x9f, 0x9b, 0xba, 0xad, 0x85,
        0xa3, 0xe9, 0xa3, 0x95, 0x9c, 0x89, 0x89, 0xb7, 0xc4, 0xb9, 0x71, 0x97,
        0x99, 0xcb, 0x97, 0xbe, 0xbf, 0xe0, 0xcd, 0xc2, 0xc1, 0x5c, 0x99, 0x32,
        0xc5, 0x8f, 0x3e, 0xdd, 0x71, 0xf7, 0xda, 0x78, 0xbc, 0x67, 0x00, 0x77,
        0x8e, 0xf7, 0x78, 0x85, 0xa3, 0x91, 0x98, 0x79, 0xb0, 0xbb, 0xa7, 0x91,
        0xa6, 0xe9, 0xbf, 0x8a, 0xae, 0x7e, 0xd2, 0x7c, 0x9f, 0xd3, 0x8e, 0x7f,
        0xb4, 0xfa, 0xd4, 0xbd, 0x8c, 0xc4, 0xeb, 0xa3, 0xd5, 0xba, 0x9d, 0xd3,
        0xcb, 0xbc, 0xb0, 0xe3, 0xc6, 0xdf, 0xd6, 0xfa, 0xd2, 0xd3, 0xb1, 0xa0,
        0xa4, 0x98, 0xff, 0x78, 0xd6, 0xa9, 0x73, 0xc3, 0xc2, 0xd1, 0xdb, 0xd3,
        0xc6, 0x9e, 0xcd, 0xca, 0xad, 0x96, 0x89, 0xa6, 0xb6, 0x92, 0xb6, 0xc1,
        0x90, 0xac, 0xa0, 0xc8, 0xa1, 0xaa, 0x96, 0xaa, 0xc3, 0xa0, 0x89, 0xc5,
        0x9d, 0xe3, 0xd9, 0xc1, 0xaf, 0xac, 0xe7, 0x9a, 0x9a, 0xa1, 0x9b, 0xab,
        0xb5, 0xde, 0xae, 0xa1, 0xb2, 0xa4, 0xa1, 0xa4, 0x8b, 0xc3, 0x8f, 0xa3,
        0xb3, 0xaa, 0x89, 0x96, 0x86, 0x8e, 0xae, 0xb2, 0xbe, 0xb6, 0x87, 0x95,
        0xaf, 0x98, 0xba, 0xb6, 0x9a, 0xd8, 0x9a, 0xec, 0x9d, 0xb8, 0xa1, 0xef,
        0xac, 0xd1, 0xab, 0x9c, 0x93, 0xca, 0x35, 0xab, 0x62, 0xc2, 0xc6, 0x9e,
        0x9d, 0xdb, 0xb1, 0x82, 0xab, 0x8a, 0xa8, 0xbe, 0x95, 0x92, 0xb6, 0xc0,
        0xb2, 0x99, 0xad, 0xbb, 0x9d, 0xa2, 0x85, 0xad, 0xa3, 0xb8, 0x93, 0xbd,
        0xa0, 0xa3, 0xb0, 0xb2, 0x8c, 0xb5, 0xc4, 0xb4, 0x8e, 0xa9, 0xa7, 0xa0,
        0xb5, 0x96, 0x9b, 0xb7, 0xb9, 0x5d, 0x96, 0xa3, 0x8c, 0x8a, 0x88, 0xe0,
        0x8e, 0x9d, 0xf7, 0xb6, 0xc4, 0x7a, 0x9f, 0x8c, 0x8e, 0x82, 0x92, 0x90,
        0xd2, 0xe5, 0xbd, 0xb8, 0xb2, 0x8b, 0xe7, 0x98, 0xe5, 0x97, 0x6f, 0xe6,
        0xcc, 0xe0, 0xa0, 0xd8, 0xe8, 0xe9, 0xc1, 0xa3, 0xb8, 0x9a, 0x8a, 0xb5,
        0xa4, 0x95, 0xa0, 0xb1, 0x97, 0x8a, 0xb8, 0xb0, 0xa1, 0xac, 0xa3, 0xa3,
        0xb0, 0x9f, 0x8e, 0x94, 0x9f, 0xa7, 0x97, 0x9c, 0x96, 0xa6, 0x91, 0xc4,
        0xaa, 0x93, 0xa2, 0xa9, 0x8e, 0x9b, 0x97, 0xa7, 0x97, 0xa6, 0x9e, 0x8a,
        0x10, 0xf7, 0xff, 0xff, 0x8a, 0xfd, 0xff, 0xff, 0x04, 0x00, 0x00, 0x00,
        0x50, 0x00, 0x00, 0x00, 0x2d, 0x00, 0x00, 0x00, 0xfd, 0xff, 0xff, 0xff,
        0xf8, 0xff, 0xff, 0xff, 0x00, 0x00, 0x00, 0x00, 0xfa, 0xff, 0xff, 0xff,
        0x81, 0x00, 0x00, 0x00, 0xe3, 0xff, 0xff, 0xff, 0xfd, 0xff, 0xff, 0xff,
        0xb4, 0x00, 0x00, 0x00, 0x74, 0x00, 0x00, 0x00, 0xfe, 0xff, 0xff, 0xff,
        0x5d, 0x00, 0x00, 0x00, 0xfc, 0xff, 0xff, 0xff, 0x24, 0x00, 0x00, 0x00,
        0x28, 0x00, 0x00, 0x00, 0xfb, 0xff, 0xff, 0xff, 0x7b, 0xff, 0xff, 0xff,
        0xb7, 0x00, 0x00, 0x00, 0x00, 0x00, 0x00, 0x00, 0x00, 0x00, 0x00, 0x00,
        0x70, 0xf7, 0xff, 0xff, 0xea, 0xfd, 0xff, 0xff, 0x04, 0x00, 0x00, 0x00,
        0x0c, 0x00, 0x00, 0x00, 0xda, 0xff, 0xff, 0xff, 0xb0, 0xff, 0xff, 0xff,
        0xb5, 0xff, 0xff, 0xff, 0x8c, 0xf7, 0xff, 0xff, 0x06, 0xfe, 0xff, 0xff,
        0x04, 0x00, 0x00, 0x00, 0x90, 0x01, 0x00, 0x00, 0x7f, 0x89, 0x76, 0x72,
        0x90, 0x65, 0x7f, 0x76, 0x78, 0x65, 0x59, 0x69, 0x76, 0x68, 0x2f, 0x68,
        0x67, 0x6b, 0x69, 0x5a, 0x75, 0x5f, 0x69, 0x5a, 0x36, 0x5d, 0x6b, 0x6a,
        0x5f, 0x81, 0x69, 0x51, 0x64, 0x66, 0x79, 0x67, 0x67, 0x69, 0x65, 0x66,
        0x71, 0x6f, 0x6a, 0x65, 0x23, 0x6d, 0x74, 0x6d, 0x6e, 0x69, 0x6c, 0x5e,
        0x61, 0x56, 0x6e, 0x5f, 0x58, 0x6a, 0x54, 0x74, 0x71, 0x49, 0x69, 0x6a,
        0x3a, 0x64, 0x53, 0x6e, 0x6a, 0x89, 0x5c, 0x67, 0x5e, 0x68, 0x6d, 0x63,
        0x5f, 0x62, 0x64, 0x6d, 0x53, 0x53, 0x55, 0x59, 0x60, 0x52, 0x67, 0x76,
        0x53, 0x6b, 0x6d, 0x51, 0x6c, 0x5a, 0x70, 0x6e, 0x5d, 0x52, 0x68, 0x5d,
        0x59, 0x5b, 0x55, 0x5d, 0x74, 0x63, 0x65, 0x50, 0x52, 0x6e, 0x53, 0x6c,
        0x4f, 0x5d, 0x66, 0x62, 0x6f, 0x6c, 0x50, 0x71, 0x71, 0x4c, 0x55, 0x78,
        0x0d, 0x65, 0x6b, 0x64, 0x65, 0x65, 0x64, 0x68, 0x66, 0x67, 0x8c, 0x64,
        0x69, 0x6a, 0x69, 0x8d, 0x6d, 0x5d, 0x62, 0x37, 0x95, 0x62, 0x5f, 0x6f,
        0x52, 0x95, 0x73, 0x61, 0x66, 0x65, 0x69, 0x65, 0x66, 0x4f, 0x5f, 0x75,
        0x58, 0x68, 0x6d, 0x71, 0x0d, 0x63, 0x64, 0x67, 0x67, 0x76, 0x5e, 0x74,
        0x67, 0x5b, 0x5c, 0x6e, 0x5c, 0x69, 0x71, 0x67, 0x65, 0x70, 0x6f, 0x68,
        0xff, 0x69, 0x57, 0x61, 0x59, 0x86, 0x61, 0x75, 0x5d, 0x64, 0x5a, 0x65,
        0x6b, 0x69, 0x66, 0x55, 0x7a, 0x55, 0x5e, 0x61, 0xb8, 0x74, 0x64, 0x71,
        0x62, 0x4b, 0x6b, 0x67, 0x6a, 0x6b, 0x56, 0x74, 0x78, 0x7d, 0x68, 0x6c,
        0x7d, 0x57, 0x62, 0x5e, 0x47, 0x68, 0x69, 0x78, 0x51, 0x57, 0x66, 0x76,
        0x66, 0x5e, 0x60, 0x55, 0x61, 0x5b, 0x5e, 0x60, 0x73, 0x85, 0x6c, 0x7a,
        0x8a, 0x6b, 0x74, 0x7f, 0x70, 0x59, 0x7a, 0x7c, 0x77, 0x7d, 0x36, 0x67,
        0x71, 0x5e, 0x67, 0x4b, 0x65, 0x68, 0x67, 0x79, 0x15, 0x75, 0x5a, 0x68,
        0x58, 0x82, 0x56, 0x6e, 0x6a, 0x72, 0x6d, 0x66, 0x6a, 0x56, 0x56, 0x6b,
        0x65, 0x88, 0x60, 0x30, 0x4f, 0x67, 0x68, 0x68, 0x66, 0x8e, 0x60, 0x65,
        0x63, 0x69, 0x7f, 0x62, 0x65, 0x61, 0x64, 0x6b, 0x75, 0x5d, 0x69, 0x71,
        0x00, 0x76, 0x5f, 0x63, 0x63, 0x70, 0x6c, 0x62, 0x5f, 0x5f, 0x62, 0x72,
        0x5d, 0x73, 0x63, 0x66, 0x5d, 0x80, 0x4a, 0x58, 0x4a, 0x68, 0x51, 0x6c,
        0x64, 0x5d, 0x6c, 0x68, 0x65, 0x6e, 0x5e, 0x6a, 0x6c, 0x6e, 0x6a, 0x63,
        0x64, 0x58, 0x4f, 0x50, 0xb2, 0x69, 0x70, 0x69, 0x67, 0x6b, 0x65, 0x72,
        0x6e, 0x6b, 0x49, 0x68, 0x73, 0x69, 0x69, 0x35, 0x67, 0x5a, 0x79, 0x65,
        0x23, 0x68, 0x62, 0x58, 0x7c, 0x81, 0x77, 0x5f, 0x65, 0x5d, 0x6d, 0x57,
        0x71, 0x6e, 0x6a, 0x5f, 0x5b, 0x62, 0x66, 0x62, 0x40, 0x5b, 0x6b, 0x6d,
        0x60, 0x7a, 0x5f, 0x6e, 0x63, 0x68, 0x69, 0x66, 0x67, 0x67, 0x67, 0x64,
        0xa2, 0xff, 0xff, 0xff, 0x04, 0x00, 0x00, 0x00, 0x50, 0x00, 0x00, 0x00,
        0xd6, 0x12, 0x00, 0x00, 0x31, 0x13, 0x00, 0x00, 0x58, 0x13, 0x00, 0x00,
        0x40, 0x10, 0x00, 0x00, 0xcc, 0xff, 0xff, 0xff, 0x8a, 0xff, 0xff, 0xff,
        0x09, 0x13, 0x00, 0x00, 0xb1, 0x00, 0x00, 0x00, 0x05, 0x17, 0x00, 0x00,
        0x95, 0x09, 0x00, 0x00, 0x42, 0xed, 0xff, 0xff, 0xef, 0x01, 0x00, 0x00,
        0xd6, 0x0d, 0x00, 0x00, 0x88, 0x14, 0x00, 0x00, 0x62, 0x0a, 0x00, 0x00,
        0x73, 0x17, 0x00, 0x00, 0x5e, 0x0d, 0x00, 0x00, 0xfa, 0x10, 0x00, 0x00,
        0x6d, 0x16, 0x00, 0x00, 0x4f, 0x12, 0x00, 0x00, 0x00, 0x00, 0x06, 0x00,
        0x08, 0x00, 0x04, 0x00, 0x06, 0x00, 0x00, 0x00, 0x04, 0x00, 0x00, 0x00,
        0x3c, 0x00, 0x00, 0x00, 0x50, 0x3c, 0x51, 0x4e, 0x46, 0x08, 0xff, 0x6c,
        0x41, 0x32, 0x54, 0x42, 0x5e, 0x06, 0x4e, 0x4e, 0xbe, 0x4c, 0x58, 0x4e,
        0x3e, 0x4d, 0x45, 0x5d, 0x45, 0x00, 0xa4, 0x6c, 0x3f, 0x4c, 0x3d, 0x51,
        0x63, 0x44, 0x49, 0x55, 0xb2, 0x3a, 0x48, 0x56, 0x5b, 0x59, 0x5a, 0x4f,
        0x58, 0x02, 0xa3, 0x70, 0x3f, 0x43, 0x3e, 0x46, 0x57, 0x43, 0x43, 0x52,
        0xb0, 0x3d, 0x3f, 0x67, 0xd8, 0xf9, 0xff, 0xff, 0x64, 0xfa, 0xff, 0xff,
        0x20, 0x00, 0x00, 0x00, 0x14, 0x00, 0x00, 0x00, 0x08, 0x00, 0x00, 0x00,
        0xd0, 0x05, 0x00, 0x00, 0x01, 0x00, 0x00, 0x00, 0x07, 0x00, 0x00, 0x00,
        0x01, 0x00, 0x00, 0x00, 0x00, 0x00, 0x00, 0x00, 0x0a, 0x00, 0x00, 0x00,
        0x48, 0x01, 0x00, 0x00, 0x24, 0x00, 0x00, 0x00, 0x30, 0x02, 0x00, 0x00,
        0x64, 0x04, 0x00, 0x00, 0xc4, 0x03, 0x00, 0x00, 0xa8, 0x01, 0x00, 0x00,
        0x90, 0x00, 0x00, 0x00, 0x20, 0x03, 0x00, 0x00, 0x9c, 0x02, 0x00, 0x00,
        0xe8, 0x04, 0x00, 0x00, 0x2a, 0xfb, 0xff, 0xff, 0x00, 0x00, 0x00, 0x03,
        0x10, 0x00, 0x00, 0x00, 0x0a, 0x00, 0x00, 0x00, 0x14, 0x00, 0x00, 0x00,
        0x34, 0x00, 0x00, 0x00, 0x02, 0x00, 0x00, 0x00, 0x01, 0x00, 0x00, 0x00,
        0x14, 0x00, 0x00, 0x00, 0x1d, 0x00, 0x00, 0x00, 0x64, 0x65, 0x65, 0x70,
        0x71, 0x2f, 0x6d, 0x6f, 0x64, 0x65, 0x6c, 0x2f, 0x61, 0x63, 0x74, 0x69,
        0x6f, 0x6e, 0x5f, 0x76, 0x61, 0x6c, 0x75, 0x65, 0x2f, 0x52, 0x65, 0x6c,
        0x75, 0x00, 0x00, 0x00, 0xfc, 0xfa, 0xff, 0xff, 0x2c, 0x00, 0x00, 0x00,
        0x20, 0x00, 0x00, 0x00, 0x14, 0x00, 0x00, 0x00, 0x04, 0x00, 0x00, 0x00,
        0x01, 0x00, 0x00, 0x00, 0x5c, 0x00, 0x00, 0x00, 0x00, 0x00, 0x00, 0x00,
        0x01, 0x00, 0x00, 0x00, 0x91, 0x90, 0x90, 0x3f, 0x01, 0x00, 0x00, 0x00,
        0x18, 0x18, 0x38, 0x43, 0x01, 0x00, 0x00, 0x00, 0xd0, 0xcf, 0xcf, 0xc2,
        0xaa, 0xfb, 0xff, 0xff, 0x00, 0x00, 0x00, 0x03, 0x10, 0x00, 0x00, 0x00,
        0x09, 0x00, 0x00, 0x00, 0x14, 0x00, 0x00, 0x00, 0x54, 0x00, 0x00, 0x00,
        0x02, 0x00, 0x00, 0x00, 0x14, 0x00, 0x00, 0x00, 0x14, 0x00, 0x00, 0x00,
        0x3c, 0x00, 0x00, 0x00, 0x64, 0x65, 0x65, 0x70, 0x71, 0x2f, 0x6d, 0x6f,
        0x64, 0x65, 0x6c, 0x2f, 0x61, 0x63, 0x74, 0x69, 0x6f, 0x6e, 0x5f, 0x76,
        0x61, 0x6c, 0x75, 0x65, 0x2f, 0x66, 0x75, 0x6c, 0x6c, 0x79, 0x5f, 0x63,
        0x6f, 0x6e, 0x6e, 0x65, 0x63, 0x74, 0x65, 0x64, 0x5f, 0x31, 0x2f, 0x77,
        0x65, 0x69, 0x67, 0x68, 0x74, 0x73, 0x2f, 0x74, 0x72, 0x61, 0x6e, 0x73,
        0x70, 0x6f, 0x73, 0x65, 0x00, 0x00, 0x00, 0x00, 0x9c, 0xfb, 0xff, 0xff,
        0x2c, 0x00, 0x00, 0x00, 0x20, 0x00, 0x00, 0x00, 0x14, 0x00, 0x00, 0x00,
        0x04, 0x00, 0x00, 0x00, 0x01, 0x00, 0x00, 0x00, 0xa8, 0x00, 0x00, 0x00,
        0x00, 0x00, 0x00, 0x00, 0x01, 0x00, 0x00, 0x00, 0xf8, 0xae, 0x44, 0x3c,
        0x01, 0x00, 0x00, 0x00, 0x3c, 0xf5, 0x85, 0x3f, 0x01, 0x00, 0x00, 0x00,
        0xab, 0xef, 0x00, 0xc0, 0x4a, 0xfc, 0xff, 0xff, 0x00, 0x00, 0x00, 0x03,
        0x10, 0x00, 0x00, 0x00, 0x08, 0x00, 0x00, 0x00, 0x14, 0x00, 0x00, 0x00,
        0x24, 0x00, 0x00, 0x00, 0x02, 0x00, 0x00, 0x00, 0x01, 0x00, 0x00, 0x00,
        0x14, 0x00, 0x00, 0x00, 0x0e, 0x00, 0x00, 0x00, 0x64, 0x65, 0x65, 0x70,
        0x71, 0x2f, 0x69, 0x6e, 0x70, 0x75, 0x74, 0x2f, 0x4f, 0x62, 0x00, 0x00,
        0x0c, 0xfc, 0xff, 0xff, 0x30, 0x00, 0x00, 0x00, 0x24, 0x00, 0x00, 0x00,
        0x18, 0x00, 0x00, 0x00, 0x04, 0x00, 0x00, 0x00, 0x01, 0x00, 0x00, 0x00,
        0x00, 0x00, 0x00, 0x00, 0x00, 0x00, 0x00, 0x00, 0x00, 0x00, 0x00, 0x00,
        0x01, 0x00, 0x00, 0x00, 0xa1, 0xa0, 0xa0, 0x3c, 0x01, 0x00, 0x00, 0x00,
        0x00, 0x00, 0xa0, 0x40, 0x01, 0x00, 0x00, 0x00, 0x00, 0x00, 0x00, 0x00,
        0xbe, 0xfc, 0xff, 0xff, 0x00, 0x00, 0x00, 0x02, 0x10, 0x00, 0x00, 0x00,
        0x07, 0x00, 0x00, 0x00, 0x10, 0x00, 0x00, 0x00, 0x48, 0x00, 0x00, 0x00,
        0x01, 0x00, 0x00, 0x00, 0x14, 0x00, 0x00, 0x00, 0x36, 0x00, 0x00, 0x00,
        0x64, 0x65, 0x65, 0x70, 0x71, 0x2f, 0x6d, 0x6f, 0x64, 0x65, 0x6c, 0x2f,
        0x61, 0x63, 0x74, 0x69, 0x6f, 0x6e, 0x5f, 0x76, 0x61, 0x6c, 0x75, 0x65,
        0x2f, 0x66, 0x75, 0x6c, 0x6c, 0x79, 0x5f, 0x63, 0x6f, 0x6e, 0x6e, 0x65,
        0x63, 0x74, 0x65, 0x64, 0x5f, 0x31, 0x2f, 0x4d, 0x61, 0x74, 0x4d, 0x75,
        0x6c, 0x5f, 0x62, 0x69, 0x61, 0x73, 0x00, 0x00, 0x4c, 0xfd, 0xff, 0xff,
        0x14, 0x00, 0x00, 0x00, 0x04, 0x00, 0x00, 0x00, 0x01, 0x00, 0x00, 0x00,
        0x00, 0x00, 0x00, 0x00, 0x00, 0x00, 0x00, 0x00, 0x01, 0x00, 0x00, 0x00,
        0xfa, 0x22, 0x5e, 0x3c, 0x3a, 0xfd, 0xff, 0xff, 0x00, 0x00, 0x00, 0x03,
        0x10, 0x00, 0x00, 0x00, 0x06, 0x00, 0x00, 0x00, 0x14, 0x00, 0x00, 0x00,
        0x34, 0x00, 0x00, 0x00, 0x02, 0x00, 0x00, 0x00, 0x01, 0x00, 0x00, 0x00,
        0x14, 0x00, 0x00, 0x00, 0x1f, 0x00, 0x00, 0x00, 0x64, 0x65, 0x65, 0x70,
        0x71, 0x2f, 0x6d, 0x6f, 0x64, 0x65, 0x6c, 0x2f, 0x61, 0x63, 0x74, 0x69,
        0x6f, 0x6e, 0x5f, 0x76, 0x61, 0x6c, 0x75, 0x65, 0x2f, 0x52, 0x65, 0x6c,
        0x75, 0x5f, 0x31, 0x00, 0x0c, 0xfd, 0xff, 0xff, 0x30, 0x00, 0x00, 0x00,
        0x24, 0x00, 0x00, 0x00, 0x18, 0x00, 0x00, 0x00, 0x04, 0x00, 0x00, 0x00,
        0x01, 0x00, 0x00, 0x00, 0x5c, 0x00, 0x00, 0x00, 0x00, 0x00, 0x00, 0x00,
        0x00, 0x00, 0x00, 0x00, 0x01, 0x00, 0x00, 0x00, 0x91, 0x90, 0x90, 0x3f,
        0x01, 0x00, 0x00, 0x00, 0x18, 0x18, 0x38, 0x43, 0x01, 0x00, 0x00, 0x00,
        0xd0, 0xcf, 0xcf, 0xc2, 0xbe, 0xfd, 0xff, 0xff, 0x00, 0x00, 0x00, 0x02,
        0x10, 0x00, 0x00, 0x00, 0x05, 0x00, 0x00, 0x00, 0x10, 0x00, 0x00, 0x00,
        0x48, 0x00, 0x00, 0x00, 0x01, 0x00, 0x00, 0x00, 0x03, 0x00, 0x00, 0x00,
        0x36, 0x00, 0x00, 0x00, 0x64, 0x65, 0x65, 0x70, 0x71, 0x2f, 0x6d, 0x6f,
        0x64, 0x65, 0x6c, 0x2f, 0x61, 0x63, 0x74, 0x69, 0x6f, 0x6e, 0x5f, 0x76,
        0x61, 0x6c, 0x75, 0x65, 0x2f, 0x66, 0x75, 0x6c, 0x6c, 0x79, 0x5f, 0x63,
        0x6f, 0x6e, 0x6e, 0x65, 0x63, 0x74, 0x65, 0x64, 0x5f, 0x32, 0x2f, 0x4d,
        0x61, 0x74, 0x4d, 0x75, 0x6c, 0x5f, 0x62, 0x69, 0x61, 0x73, 0x00, 0x00,
        0x4c, 0xfe, 0xff, 0xff, 0x18, 0x00, 0x00, 0x00, 0x04, 0x00, 0x00, 0x00,
        0x01, 0x00, 0x00, 0x00, 0x00, 0x00, 0x00, 0x00, 0x00, 0x00, 0x00, 0x00,
        0x00, 0x00, 0x00, 0x00, 0x01, 0x00, 0x00, 0x00, 0x97, 0xfe, 0xcc, 0x3c,
        0x3e, 0xfe, 0xff, 0xff, 0x00, 0x00, 0x00, 0x03, 0x10, 0x00, 0x00, 0x00,
        0x04, 0x00, 0x00, 0x00, 0x14, 0x00, 0x00, 0x00, 0x48, 0x00, 0x00, 0x00,
        0x02, 0x00, 0x00, 0x00, 0x01, 0x00, 0x00, 0x00, 0x03, 0x00, 0x00, 0x00,
        0x32, 0x00, 0x00, 0x00, 0x64, 0x65, 0x65, 0x70, 0x71, 0x2f, 0x6d, 0x6f,
        0x64, 0x65, 0x6c, 0x2f, 0x61, 0x63, 0x74, 0x69, 0x6f, 0x6e, 0x5f, 0x76,
        0x61, 0x6c, 0x75, 0x65, 0x2f, 0x66, 0x75, 0x6c, 0x6c, 0x79, 0x5f, 0x63,
        0x6f, 0x6e, 0x6e, 0x65, 0x63, 0x74, 0x65, 0x64, 0x5f, 0x32, 0x2f, 0x42,
        0x69, 0x61, 0x73, 0x41, 0x64, 0x64, 0x00, 0x00, 0x24, 0xfe, 0xff, 0xff,
        0x30, 0x00, 0x00, 0x00, 0x24, 0x00, 0x00, 0x00, 0x18, 0x00, 0x00, 0x00,
        0x04, 0x00, 0x00, 0x00, 0x01, 0x00, 0x00, 0x00, 0x5c, 0x00, 0x00, 0x00,
        0x00, 0x00, 0x00, 0x00, 0x00, 0x00, 0x00, 0x00, 0x01, 0x00, 0x00, 0x00,
        0x91, 0x90, 0x90, 0x3f, 0x01, 0x00, 0x00, 0x00, 0x18, 0x18, 0x38, 0x43,
        0x01, 0x00, 0x00, 0x00, 0xd0, 0xcf, 0xcf, 0xc2, 0xd6, 0xfe, 0xff, 0xff,
        0x00, 0x00, 0x00, 0x03, 0x10, 0x00, 0x00, 0x00, 0x03, 0x00, 0x00, 0x00,
        0x14, 0x00, 0x00, 0x00, 0x50, 0x00, 0x00, 0x00, 0x02, 0x00, 0x00, 0x00,
        0x14, 0x00, 0x00, 0x00, 0x14, 0x00, 0x00, 0x00, 0x3a, 0x00, 0x00, 0x00,
        0x64, 0x65, 0x65, 0x70, 0x71, 0x2f, 0x6d, 0x6f, 0x64, 0x65, 0x6c, 0x2f,
        0x61, 0x63, 0x74, 0x69, 0x6f, 0x6e, 0x5f, 0x76, 0x61, 0x6c, 0x75, 0x65,
        0x2f, 0x66, 0x75, 0x6c, 0x6c, 0x79, 0x5f, 0x63, 0x6f, 0x6e, 0x6e, 0x65,
        0x63, 0x74, 0x65, 0x64, 0x2f, 0x77, 0x65, 0x69, 0x67, 0x68, 0x74, 0x73,
        0x2f, 0x74, 0x72, 0x61, 0x6e, 0x73, 0x70, 0x6f, 0x73, 0x65, 0x00, 0x00,
        0xc4, 0xfe, 0xff, 0xff, 0x2c, 0x00, 0x00, 0x00, 0x20, 0x00, 0x00, 0x00,
        0x14, 0x00, 0x00, 0x00, 0x04, 0x00, 0x00, 0x00, 0x01, 0x00, 0x00, 0x00,
        0x64, 0x00, 0x00, 0x00, 0x00, 0x00, 0x00, 0x00, 0x01, 0x00, 0x00, 0x00,
        0x62, 0xcf, 0xa1, 0x3c, 0x01, 0x00, 0x00, 0x00, 0x3f, 0xe8, 0x43, 0x40,
        0x01, 0x00, 0x00, 0x00, 0xcd, 0xe5, 0xfc, 0xbf, 0x72, 0xff, 0xff, 0xff,
        0x00, 0x00, 0x00, 0x02, 0x10, 0x00, 0x00, 0x00, 0x02, 0x00, 0x00, 0x00,
        0x10, 0x00, 0x00, 0x00, 0x54, 0x00, 0x00, 0x00, 0x01, 0x00, 0x00, 0x00,
        0x14, 0x00, 0x00, 0x00, 0x34, 0x00, 0x00, 0x00, 0x64, 0x65, 0x65, 0x70,
        0x71, 0x2f, 0x6d, 0x6f, 0x64, 0x65, 0x6c, 0x2f, 0x61, 0x63, 0x74, 0x69,
        0x6f, 0x6e, 0x5f, 0x76, 0x61, 0x6c, 0x75, 0x65, 0x2f, 0x66, 0x75, 0x6c,
        0x6c, 0x79, 0x5f, 0x63, 0x6f, 0x6e, 0x6e, 0x65, 0x63, 0x74, 0x65, 0x64,
        0x2f, 0x4d, 0x61, 0x74, 0x4d, 0x75, 0x6c, 0x5f, 0x62, 0x69, 0x61, 0x73,
        0x00, 0x00, 0x00, 0x00, 0x0c, 0x00, 0x0c, 0x00, 0x00, 0x00, 0x00, 0x00,
        0x04, 0x00, 0x08, 0x00, 0x0c, 0x00, 0x00, 0x00, 0x18, 0x00, 0x00, 0x00,
        0x04, 0x00, 0x00, 0x00, 0x01, 0x00, 0x00, 0x00, 0x00, 0x00, 0x00, 0x00,
        0x00, 0x00, 0x00, 0x00, 0x00, 0x00, 0x00, 0x00, 0x01, 0x00, 0x00, 0x00,
        0x49, 0x0e, 0xcb, 0x39, 0x00, 0x00, 0x0e, 0x00, 0x18, 0x00, 0x08, 0x00,
        0x07, 0x00, 0x0c, 0x00, 0x10, 0x00, 0x14, 0x00, 0x0e, 0x00, 0x00, 0x00,
        0x00, 0x00, 0x00, 0x03, 0x10, 0x00, 0x00, 0x00, 0x01, 0x00, 0x00, 0x00,
        0x14, 0x00, 0x00, 0x00, 0x60, 0x00, 0x00, 0x00, 0x02, 0x00, 0x00, 0x00,
        0x03, 0x00, 0x00, 0x00, 0x14, 0x00, 0x00, 0x00, 0x3c, 0x00, 0x00, 0x00,
        0x64, 0x65, 0x65, 0x70, 0x71, 0x2f, 0x6d, 0x6f, 0x64, 0x65, 0x6c, 0x2f,
        0x61, 0x63, 0x74, 0x69, 0x6f, 0x6e, 0x5f, 0x76, 0x61, 0x6c, 0x75, 0x65,
        0x2f, 0x66, 0x75, 0x6c, 0x6c, 0x79, 0x5f, 0x63, 0x6f, 0x6e, 0x6e, 0x65,
        0x63, 0x74, 0x65, 0x64, 0x5f, 0x32, 0x2f, 0x77, 0x65, 0x69, 0x67, 0x68,
        0x74, 0x73, 0x2f, 0x74, 0x72, 0x61, 0x6e, 0x73, 0x70, 0x6f, 0x73, 0x65,
        0x00, 0x00, 0x00, 0x00, 0x0c, 0x00, 0x14, 0x00, 0x04, 0x00, 0x08, 0x00,
        0x0c, 0x00, 0x10, 0x00, 0x0c, 0x00, 0x00, 0x00, 0x2c, 0x00, 0x00, 0x00,
        0x20, 0x00, 0x00, 0x00, 0x14, 0x00, 0x00, 0x00, 0x04, 0x00, 0x00, 0x00,
        0x01, 0x00, 0x00, 0x00, 0x54, 0x00, 0x00, 0x00, 0x00, 0x00, 0x00, 0x00,
        0x01, 0x00, 0x00, 0x00, 0x6b, 0x81, 0xb5, 0x3c, 0x01, 0x00, 0x00, 0x00,
        0x8b, 0xeb, 0x72, 0x40, 0x01, 0x00, 0x00, 0x00, 0x90, 0x58, 0xed, 0xbf,
        0x03, 0x00, 0x00, 0x00, 0x98, 0x00, 0x00, 0x00, 0x44, 0x00, 0x00, 0x00,
        0x04, 0x00, 0x00, 0x00, 0x88, 0xff, 0xff, 0xff, 0x00, 0x00, 0x00, 0x08,
        0x10, 0x00, 0x00, 0x00, 0x1c, 0x00, 0x00, 0x00, 0x28, 0x00, 0x00, 0x00,
        0x1c, 0x00, 0x00, 0x00, 0x03, 0x00, 0x00, 0x00, 0x02, 0x00, 0x00, 0x00,
        0x09, 0x00, 0x00, 0x00, 0x08, 0x00, 0x00, 0x00, 0x01, 0x00, 0x00, 0x00,
        0x07, 0x00, 0x00, 0x00, 0x00, 0x00, 0x00, 0x00, 0x04, 0x00, 0x04, 0x00,
        0x04, 0x00, 0x00, 0x00, 0xc4, 0xff, 0xff, 0xff, 0x00, 0x00, 0x00, 0x08,
        0x10, 0x00, 0x00, 0x00, 0x1c, 0x00, 0x00, 0x00, 0x24, 0x00, 0x00, 0x00,
        0x1c, 0x00, 0x00, 0x00, 0x03, 0x00, 0x00, 0x00, 0x01, 0x00, 0x00, 0x00,
        0x06, 0x00, 0x00, 0x00, 0x05, 0x00, 0x00, 0x00, 0x01, 0x00, 0x00, 0x00,
        0x02, 0x00, 0x00, 0x00, 0x00, 0x00, 0x00, 0x00, 0x8e, 0xff, 0xff, 0xff,
        0x00, 0x00, 0x00, 0x01, 0x14, 0x00, 0x18, 0x00, 0x00, 0x00, 0x08, 0x00,
        0x0c, 0x00, 0x07, 0x00, 0x10, 0x00, 0x00, 0x00, 0x00, 0x00, 0x14, 0x00,
        0x14, 0x00, 0x00, 0x00, 0x00, 0x00, 0x00, 0x08, 0x10, 0x00, 0x00, 0x00,
        0x1c, 0x00, 0x00, 0x00, 0x24, 0x00, 0x00, 0x00, 0x1c, 0x00, 0x00, 0x00,
        0x03, 0x00, 0x00, 0x00, 0x00, 0x00, 0x00, 0x00, 0x04, 0x00, 0x00, 0x00,
        0x03, 0x00, 0x00, 0x00, 0x01, 0x00, 0x00, 0x00, 0x01, 0x00, 0x00, 0x00,
        0x00, 0x00, 0x00, 0x00, 0xde, 0xff, 0xff, 0xff, 0x00, 0x00, 0x00, 0x01,
        0x01, 0x00, 0x00, 0x00, 0x04, 0x00, 0x00, 0x00, 0xfa, 0xff, 0xff, 0xff,
        0x00, 0x09, 0x06, 0x00, 0x06, 0x00, 0x05, 0x00, 0x06, 0x00, 0x00, 0x00,
        0x00, 0x09, 0x06, 0x00, 0x08, 0x00, 0x07, 0x00, 0x06, 0x00, 0x00, 0x00,
        0x00, 0x00, 0x00, 0x09
};

unsigned int source_seeking_len = 3016;


unsigned char source_seeking_float[] = {
  0x18, 0x00, 0x00, 0x00, 0x54, 0x46, 0x4c, 0x33, 0x00, 0x00, 0x0e, 0x00,
  0x18, 0x00, 0x04, 0x00, 0x08, 0x00, 0x0c, 0x00, 0x10, 0x00, 0x14, 0x00,
  0x0e, 0x00, 0x00, 0x00, 0x03, 0x00, 0x00, 0x00, 0x50, 0x0f, 0x00, 0x00,
  0x0c, 0x00, 0x00, 0x00, 0x10, 0x00, 0x00, 0x00, 0x20, 0x00, 0x00, 0x00,
  0x01, 0x00, 0x00, 0x00, 0x74, 0x0a, 0x00, 0x00, 0x0f, 0x00, 0x00, 0x00,
  0x54, 0x4f, 0x43, 0x4f, 0x20, 0x43, 0x6f, 0x6e, 0x76, 0x65, 0x72, 0x74,
  0x65, 0x64, 0x2e, 0x00, 0x0b, 0x00, 0x00, 0x00, 0x48, 0x0a, 0x00, 0x00,
  0x48, 0x09, 0x00, 0x00, 0xe0, 0x08, 0x00, 0x00, 0xf0, 0x06, 0x00, 0x00,
  0xe8, 0x06, 0x00, 0x00, 0xcc, 0x06, 0x00, 0x00, 0xc4, 0x06, 0x00, 0x00,
  0x64, 0x06, 0x00, 0x00, 0x5c, 0x06, 0x00, 0x00, 0x0c, 0x00, 0x00, 0x00,
  0x04, 0x00, 0x00, 0x00, 0xa0, 0xf1, 0xff, 0xff, 0xea, 0xf6, 0xff, 0xff,
  0x04, 0x00, 0x00, 0x00, 0x40, 0x06, 0x00, 0x00, 0xf8, 0xc2, 0xfc, 0x3e,
  0xd1, 0x65, 0x49, 0xbf, 0x6e, 0xb3, 0xb5, 0xbf, 0xa4, 0xee, 0x26, 0x3e,
  0xc5, 0x76, 0xeb, 0xbe, 0xe7, 0xb9, 0xd1, 0x3f, 0x06, 0xa5, 0xce, 0xbe,
  0x14, 0x62, 0xb8, 0x3d, 0x6a, 0xd5, 0x8f, 0xbe, 0x11, 0x45, 0xa6, 0x3f,
  0x58, 0x71, 0x56, 0xbe, 0x4e, 0x16, 0xf1, 0x3d, 0x58, 0xc4, 0x27, 0xbf,
  0x92, 0x85, 0x2b, 0x3f, 0x9e, 0x9a, 0x34, 0x3f, 0x18, 0xf4, 0x33, 0x3e,
  0x89, 0x1a, 0x7d, 0x3d, 0x9f, 0xdd, 0xf8, 0x3e, 0x65, 0xb9, 0x43, 0x3f,
  0x42, 0xd0, 0x85, 0x3e, 0xd6, 0xf7, 0x0f, 0x3f, 0xe2, 0x23, 0x32, 0xbf,
  0xe2, 0xba, 0xa5, 0xbf, 0x34, 0x9b, 0x98, 0x3d, 0x00, 0x00, 0x6e, 0xbe,
  0x20, 0x4c, 0xd0, 0x3f, 0x5c, 0x96, 0x2f, 0xbf, 0x67, 0x41, 0xd0, 0xbe,
  0xde, 0xeb, 0xc4, 0x3e, 0x40, 0x62, 0xc2, 0x3e, 0xd2, 0x3a, 0xe5, 0xbe,
  0xbd, 0x15, 0xc2, 0x3e, 0x5c, 0x28, 0x45, 0xbf, 0xfb, 0x61, 0xac, 0x3e,
  0x26, 0xb0, 0x25, 0x3f, 0x30, 0x85, 0xff, 0x3e, 0xfc, 0x88, 0x39, 0x3f,
  0xe3, 0x15, 0x17, 0xbe, 0xec, 0xbf, 0x2e, 0x3f, 0xf7, 0x90, 0xdc, 0xbe,
  0xfc, 0x71, 0x1e, 0x3f, 0xc3, 0x14, 0x8f, 0x3e, 0x28, 0xff, 0xcb, 0xbe,
  0x4b, 0xc4, 0x94, 0x3e, 0x30, 0xde, 0x9f, 0x3e, 0xfe, 0xec, 0x4f, 0x3f,
  0x97, 0x92, 0x9c, 0x3d, 0x58, 0xd9, 0x30, 0x3e, 0xb4, 0x3e, 0x03, 0x3f,
  0x5e, 0x4d, 0xc0, 0x3e, 0xd5, 0x49, 0x41, 0xbe, 0x08, 0x97, 0x1f, 0xbe,
  0xd3, 0xe9, 0x61, 0xbc, 0x81, 0x57, 0xe3, 0xbe, 0xb5, 0x84, 0xc0, 0xbe,
  0xc8, 0x57, 0x9b, 0x3e, 0xfa, 0xe8, 0x78, 0xbe, 0xad, 0xbe, 0xd9, 0xbe,
  0xfd, 0xc7, 0xc1, 0x3c, 0xca, 0xb0, 0x62, 0x3e, 0x48, 0x5f, 0x81, 0xbe,
  0x4f, 0xc4, 0xd4, 0xbe, 0xe4, 0x54, 0x96, 0xbf, 0x72, 0x5f, 0x49, 0xbd,
  0xec, 0xff, 0x91, 0xbd, 0x71, 0xcf, 0x78, 0x3f, 0xf7, 0xda, 0xdc, 0xbe,
  0x84, 0x89, 0xab, 0xbe, 0xa6, 0x01, 0x44, 0x3f, 0xb2, 0x47, 0xe4, 0x3e,
  0x90, 0xb9, 0xfb, 0xbe, 0x36, 0x78, 0x2b, 0xbe, 0xe5, 0x9b, 0x10, 0xbf,
  0xd6, 0x82, 0x80, 0x3f, 0x5a, 0x7e, 0x5a, 0x3f, 0xb4, 0x84, 0x49, 0x3e,
  0xf8, 0x1a, 0xb6, 0x3e, 0xf3, 0x69, 0x5a, 0x3f, 0x2c, 0x97, 0x9b, 0x3e,
  0x69, 0x0e, 0x26, 0xbf, 0x76, 0x63, 0x83, 0x3f, 0x39, 0x27, 0x4e, 0xbe,
  0xea, 0x4b, 0x37, 0xbf, 0xe9, 0x76, 0x48, 0xbe, 0xa6, 0xb0, 0x91, 0x3f,
  0xab, 0x4a, 0x1b, 0x3f, 0xb0, 0xff, 0x9e, 0x3e, 0xf9, 0xae, 0xa8, 0xbd,
  0xb5, 0xcd, 0x06, 0x3f, 0xc0, 0xc7, 0xb4, 0x3b, 0xf2, 0x04, 0xd3, 0xbe,
  0xe8, 0x5c, 0x0d, 0xbe, 0xa5, 0x8f, 0x39, 0xbf, 0x36, 0x4c, 0x88, 0x3f,
  0xa1, 0x77, 0x56, 0x3f, 0x21, 0xaa, 0x11, 0x3e, 0x5d, 0xdb, 0xf4, 0x3e,
  0x25, 0x0b, 0x1c, 0x3e, 0x9d, 0xd4, 0x20, 0x3f, 0xfc, 0x67, 0x01, 0xbd,
  0x11, 0x3b, 0x88, 0xbf, 0x5d, 0x07, 0xbf, 0x3f, 0x8e, 0x34, 0xa0, 0xbf,
  0x5d, 0xd5, 0x94, 0xbe, 0x72, 0x4b, 0x83, 0x3f, 0xaf, 0xc6, 0x82, 0xbf,
  0x9f, 0x4f, 0x82, 0x3f, 0x55, 0xec, 0x82, 0x3f, 0xe3, 0xde, 0x88, 0xbf,
  0xf1, 0xe4, 0x61, 0xbe, 0xfc, 0xf3, 0x84, 0x3f, 0xda, 0x39, 0x32, 0x3f,
  0x1e, 0x4c, 0x12, 0x3f, 0x31, 0x24, 0xc2, 0xbe, 0x75, 0x9f, 0x81, 0xbe,
  0x99, 0xbd, 0x81, 0x3d, 0xb3, 0xa4, 0x65, 0xbb, 0xce, 0xa2, 0xcc, 0x3e,
  0xec, 0xdc, 0x3f, 0xbf, 0x23, 0x8a, 0x9e, 0xbe, 0x8b, 0x99, 0x14, 0xbc,
  0x2c, 0x21, 0x4e, 0xbf, 0xe1, 0x97, 0xc6, 0xbf, 0x72, 0x65, 0xa7, 0xbe,
  0xe4, 0xd4, 0x4f, 0xbf, 0xe0, 0x3a, 0x8d, 0x3f, 0xf3, 0x3c, 0x2d, 0xbf,
  0x86, 0xac, 0x20, 0xbe, 0xa1, 0x35, 0x38, 0x3e, 0xe5, 0xe3, 0x10, 0x3f,
  0xf1, 0x22, 0x93, 0xbe, 0x95, 0x9f, 0xa7, 0x3e, 0xa4, 0x6f, 0x47, 0xbe,
  0x84, 0x7c, 0x5e, 0x3f, 0xbf, 0x9d, 0x04, 0x3e, 0xe6, 0x94, 0xb3, 0x3e,
  0x82, 0x3e, 0x37, 0x3f, 0x1a, 0x46, 0x56, 0x3f, 0x1d, 0x81, 0xce, 0x3e,
  0xe0, 0x75, 0xaa, 0x3e, 0x41, 0x9d, 0x2d, 0xbd, 0xae, 0x21, 0xa4, 0x3e,
  0x7b, 0x9c, 0xdb, 0x3e, 0x33, 0x70, 0x67, 0x3f, 0x54, 0xa2, 0x08, 0x3f,
  0x5d, 0x4c, 0x8b, 0xbf, 0x79, 0xdb, 0x07, 0x3f, 0xf6, 0x09, 0x26, 0x3f,
  0xd4, 0x70, 0xe4, 0xbe, 0xb5, 0x51, 0xc6, 0xbd, 0xde, 0x3f, 0x6d, 0x3f,
  0xac, 0x89, 0xff, 0xbd, 0x3e, 0x1f, 0x8d, 0x3f, 0x66, 0x1d, 0x09, 0x3e,
  0x15, 0xdd, 0xbc, 0x3e, 0x49, 0x32, 0x61, 0x3e, 0xf6, 0x6d, 0x98, 0x3c,
  0xda, 0xa9, 0x42, 0x3f, 0x65, 0xbf, 0x0b, 0xbe, 0x64, 0xdc, 0x94, 0x3f,
  0xf9, 0x14, 0xa4, 0x3f, 0x80, 0xb6, 0xe8, 0xbe, 0x01, 0x49, 0xbd, 0xbf,
  0x2a, 0xc7, 0xf0, 0x3d, 0x7a, 0xe0, 0x4e, 0xbe, 0x2d, 0xc3, 0xa8, 0x3f,
  0x67, 0x10, 0x70, 0xbf, 0xed, 0x76, 0xde, 0x3e, 0x02, 0xb3, 0x57, 0x3e,
  0xc0, 0x3d, 0xed, 0x3e, 0x22, 0x4d, 0x61, 0xbd, 0x5d, 0x8d, 0x84, 0xbe,
  0x29, 0xda, 0xeb, 0xbe, 0x2b, 0xa4, 0x40, 0x3f, 0x64, 0x6a, 0x6e, 0x3f,
  0xf0, 0x3b, 0x33, 0xbc, 0x60, 0x6d, 0xb5, 0x3e, 0x7a, 0xab, 0xd5, 0x3e,
  0x33, 0x05, 0x5a, 0x3f, 0x89, 0x9a, 0x34, 0xbe, 0x33, 0x34, 0x19, 0xbe,
  0x1b, 0x67, 0xf8, 0x3e, 0xa7, 0x83, 0x9b, 0x3d, 0xdd, 0x04, 0xd8, 0x3e,
  0x62, 0xe4, 0x82, 0x3f, 0x5f, 0xb9, 0x5f, 0x3e, 0xe7, 0x23, 0xd2, 0x3d,
  0xc3, 0xc8, 0x63, 0xbf, 0xb6, 0x3d, 0xcf, 0x3e, 0x32, 0xf0, 0xc0, 0x3e,
  0xad, 0xae, 0x04, 0xbf, 0x51, 0xa5, 0xca, 0xbe, 0xa6, 0x58, 0x20, 0x3f,
  0x84, 0x6a, 0x55, 0x3d, 0xa5, 0xaf, 0x0d, 0x3f, 0xd9, 0xc2, 0xf2, 0xbe,
  0x19, 0xbd, 0xd2, 0xbe, 0x36, 0x29, 0xf0, 0x3e, 0x4d, 0x72, 0xc4, 0x3d,
  0xd9, 0x8c, 0xa3, 0xbe, 0x8f, 0x58, 0x3b, 0x3f, 0xf7, 0xb6, 0x6d, 0x3d,
  0xed, 0xba, 0xc3, 0xbf, 0x8e, 0x90, 0x81, 0x3e, 0xd1, 0x5a, 0x82, 0x3e,
  0xf9, 0x9f, 0x7a, 0x3e, 0x04, 0x0f, 0x40, 0xbe, 0xe2, 0xba, 0x41, 0x3f,
  0x27, 0x37, 0x51, 0x3f, 0x4f, 0x52, 0x91, 0xbf, 0x22, 0x75, 0x98, 0x3d,
  0xf2, 0x55, 0xeb, 0xbd, 0xe5, 0x5b, 0x48, 0xbf, 0xc2, 0xc6, 0x8d, 0x3f,
  0x55, 0x4f, 0xf8, 0x3e, 0xa5, 0x7d, 0x5a, 0x3d, 0xc6, 0x74, 0x10, 0x3f,
  0x33, 0xe2, 0x61, 0xbc, 0xb2, 0xec, 0x29, 0x3f, 0x14, 0xbe, 0xe3, 0x3d,
  0xc0, 0x29, 0x77, 0x3f, 0x12, 0x27, 0x21, 0xbe, 0xc0, 0xcd, 0x4b, 0xbf,
  0x22, 0x0e, 0x53, 0xbc, 0xbd, 0x57, 0x93, 0x3d, 0x5b, 0xbd, 0xd8, 0x3f,
  0xaf, 0x67, 0x40, 0xbf, 0x58, 0x1f, 0x43, 0xbe, 0xb5, 0xc3, 0x0f, 0x3f,
  0xad, 0x08, 0x94, 0x3f, 0xa7, 0x31, 0x10, 0xbf, 0x8b, 0x11, 0x8f, 0x3e,
  0x2e, 0xa7, 0x68, 0xbf, 0xb9, 0xf4, 0x16, 0x3f, 0x7a, 0xf6, 0x2b, 0x3e,
  0xe8, 0x8b, 0x1b, 0x3f, 0x5a, 0x39, 0x19, 0x3f, 0x6d, 0x15, 0x8b, 0x3d,
  0x3e, 0x5a, 0x2e, 0x3f, 0xba, 0xc0, 0x7b, 0xbe, 0x54, 0x0b, 0xdc, 0xbd,
  0x19, 0xcf, 0x35, 0xbe, 0xc7, 0x85, 0x9f, 0xbe, 0x95, 0x7e, 0xc2, 0xbe,
  0x51, 0x4e, 0xae, 0xbe, 0xe2, 0x48, 0xab, 0x3e, 0x10, 0xe7, 0xda, 0x3d,
  0x8a, 0x5b, 0x94, 0xbe, 0x90, 0x7f, 0x13, 0x3e, 0x6a, 0xb2, 0x87, 0x3e,
  0x23, 0xba, 0xf4, 0xbd, 0x69, 0xf7, 0x7a, 0xbe, 0xa4, 0x51, 0xac, 0xbe,
  0x3d, 0x62, 0xc1, 0x3b, 0xf4, 0x1f, 0xff, 0xbd, 0xec, 0x38, 0x48, 0x3b,
  0xe8, 0x8a, 0x93, 0xbe, 0x73, 0x84, 0x74, 0x3e, 0xbd, 0x22, 0xe4, 0xbd,
  0xf8, 0x4b, 0x9c, 0xbd, 0x55, 0xc2, 0x5a, 0xbe, 0x1b, 0x0f, 0x98, 0x3f,
  0x2c, 0xee, 0xf0, 0x3f, 0x83, 0xb5, 0x87, 0x3f, 0x67, 0x96, 0xa4, 0x3f,
  0xaf, 0xd0, 0x82, 0xbf, 0xf6, 0xa8, 0x26, 0x3f, 0xd6, 0xd9, 0x96, 0x3f,
  0x57, 0x91, 0xf4, 0xbe, 0x9f, 0x50, 0x2a, 0xbf, 0x2b, 0xa2, 0xaf, 0x3f,
  0x1e, 0xd9, 0x88, 0x3f, 0x28, 0xcf, 0xe9, 0x3f, 0xe8, 0xcd, 0x60, 0xbd,
  0xd8, 0x7e, 0x0a, 0xbc, 0xc6, 0x59, 0xe6, 0x3e, 0xcb, 0xcd, 0x1a, 0x3f,
  0x0c, 0x33, 0xdc, 0xbb, 0x47, 0xd7, 0xa1, 0xbc, 0x55, 0xec, 0x91, 0xbf,
  0x99, 0x58, 0xaf, 0x3f, 0x03, 0xcc, 0x32, 0xbf, 0x82, 0x0f, 0xb3, 0xbf,
  0x3d, 0x95, 0xd6, 0xbd, 0x6f, 0x3c, 0xb9, 0xbd, 0xda, 0x04, 0xd1, 0x3f,
  0xb7, 0x17, 0xc4, 0xbe, 0x3c, 0xf6, 0x1a, 0xbe, 0xf8, 0x8a, 0xa2, 0xbe,
  0xa6, 0xc4, 0x91, 0x3f, 0x0c, 0x08, 0xcb, 0xbe, 0x76, 0x88, 0xac, 0x3e,
  0xe6, 0x6e, 0x2c, 0xbf, 0xf3, 0xe8, 0xc0, 0x3e, 0x89, 0x93, 0x2e, 0x3f,
  0x8e, 0x1f, 0x41, 0x3e, 0x6d, 0x84, 0x77, 0x3e, 0xd9, 0xe2, 0xd1, 0x3e,
  0x2e, 0xe9, 0x3c, 0x3f, 0x96, 0x3c, 0x56, 0x3e, 0x36, 0x51, 0xc0, 0xbf,
  0xdc, 0xe9, 0x73, 0x3f, 0xd6, 0x8d, 0x96, 0xbd, 0xe9, 0x49, 0xb2, 0xbe,
  0x33, 0x87, 0x9c, 0x3f, 0x65, 0x1f, 0xa2, 0x3d, 0x84, 0x2a, 0x33, 0x3f,
  0x18, 0x5d, 0x12, 0xbe, 0xc3, 0xf7, 0x29, 0xbf, 0xd8, 0x78, 0x89, 0xbe,
  0xa3, 0x3f, 0x0a, 0x3e, 0x6e, 0xe2, 0x82, 0x3e, 0x62, 0x64, 0xe1, 0xbb,
  0xb2, 0x72, 0xff, 0x3d, 0x6c, 0x63, 0x66, 0x3d, 0x38, 0x86, 0x17, 0xbf,
  0xc8, 0x2c, 0x06, 0xbf, 0x7f, 0xec, 0xf2, 0x3e, 0x01, 0x87, 0x23, 0x3e,
  0x10, 0xfa, 0x63, 0x3e, 0x05, 0xde, 0x3c, 0x3f, 0x5a, 0x5d, 0x30, 0xbf,
  0xeb, 0x2f, 0xc0, 0xbf, 0x7f, 0x3b, 0x89, 0xbe, 0xec, 0x4d, 0xd6, 0xbf,
  0x47, 0x55, 0xa6, 0x3f, 0xa7, 0x03, 0x72, 0xbe, 0x6f, 0x35, 0x3f, 0xbf,
  0x09, 0x28, 0x0e, 0xbe, 0xd4, 0x3e, 0xa3, 0x3f, 0x03, 0x1d, 0x6d, 0x3e,
  0xfd, 0xaa, 0xfd, 0x3e, 0xcb, 0xf9, 0xf6, 0xbc, 0x79, 0x72, 0xa4, 0x3e,
  0x70, 0xb4, 0x32, 0x3e, 0x4e, 0x12, 0x03, 0x3f, 0xb0, 0x2a, 0xf8, 0x3e,
  0x7d, 0x86, 0x8a, 0x3e, 0xaa, 0xe6, 0x07, 0xbe, 0x41, 0x29, 0x07, 0xbf,
  0xad, 0xac, 0xb3, 0x3e, 0xf0, 0x37, 0xb2, 0xbf, 0x6d, 0xcd, 0x92, 0xbf,
  0xae, 0x95, 0x88, 0xbe, 0x64, 0x65, 0x67, 0xbe, 0xb1, 0xcd, 0xa1, 0x3f,
  0x89, 0x03, 0x38, 0xbf, 0xf8, 0xe5, 0x07, 0xbf, 0x93, 0xeb, 0x5b, 0x3e,
  0x10, 0xb0, 0x7a, 0x3f, 0xf4, 0xc8, 0xce, 0x3d, 0x89, 0x60, 0x24, 0x3f,
  0x22, 0xc5, 0x4a, 0xbf, 0x08, 0xbf, 0x98, 0x3e, 0x31, 0x57, 0x17, 0x3f,
  0xec, 0x65, 0x98, 0x3e, 0x5d, 0x9b, 0x49, 0x3f, 0x3b, 0xc6, 0x07, 0x3e,
  0x2e, 0x67, 0xce, 0x3e, 0x96, 0x12, 0x8a, 0xbf, 0x86, 0xbc, 0x11, 0xbe,
  0xa5, 0x65, 0xb0, 0xbe, 0x45, 0xf1, 0x45, 0x3f, 0x00, 0x47, 0x83, 0x3e,
  0xa1, 0x30, 0xc4, 0x3f, 0x33, 0xf3, 0x72, 0xbe, 0xf9, 0x8a, 0x25, 0x3d,
  0xe9, 0x1a, 0x78, 0xbe, 0x7d, 0x97, 0x2f, 0x3f, 0x91, 0xae, 0xb6, 0x3f,
  0x86, 0xda, 0x0f, 0x3d, 0x9e, 0xa9, 0x5c, 0xbe, 0x16, 0xc3, 0x84, 0x3e,
  0xec, 0x27, 0x13, 0x3e, 0x3a, 0xa0, 0xc9, 0x3d, 0x57, 0xec, 0xb6, 0xbe,
  0x80, 0xa3, 0xd3, 0x3d, 0x56, 0x53, 0xc2, 0xbe, 0x5a, 0x6d, 0x0d, 0x3d,
  0xd6, 0xa1, 0xe6, 0x3d, 0x39, 0xce, 0xcc, 0xbd, 0x71, 0xd6, 0xae, 0xbd,
  0x6c, 0x36, 0x00, 0x3e, 0x68, 0x99, 0x72, 0x3e, 0xa9, 0x12, 0x7e, 0xbe,
  0x93, 0x78, 0x9c, 0x3f, 0xa6, 0xf6, 0x02, 0x3f, 0x66, 0xd6, 0x75, 0xbf,
  0x25, 0x7f, 0x3f, 0x3f, 0x2f, 0xa1, 0xed, 0x3e, 0x17, 0xe1, 0x27, 0xbf,
  0xd6, 0x4e, 0xb6, 0xbe, 0x37, 0xe0, 0x1f, 0x3e, 0xac, 0x3d, 0xdd, 0x3e,
  0x9c, 0xf4, 0x33, 0xbe, 0x0e, 0xae, 0x8b, 0xbd, 0xdc, 0xa1, 0x52, 0xbe,
  0xcd, 0x52, 0x31, 0x3e, 0xb5, 0x50, 0x71, 0xbe, 0x6e, 0x94, 0x1b, 0x3f,
  0xf0, 0xf7, 0xff, 0xff, 0x3a, 0xfd, 0xff, 0xff, 0x04, 0x00, 0x00, 0x00,
  0x50, 0x00, 0x00, 0x00, 0x9e, 0xc8, 0xae, 0x3e, 0x85, 0x9e, 0x64, 0x3e,
  0x81, 0x6a, 0xaf, 0x3c, 0xcf, 0x0b, 0x3c, 0x3f, 0xd6, 0xd8, 0x54, 0x3f,
  0x72, 0x2b, 0x7d, 0xbd, 0x7d, 0x24, 0x06, 0x3f, 0x70, 0x16, 0xe1, 0x3e,
  0x93, 0xb6, 0x1b, 0x3f, 0x56, 0x3f, 0xd8, 0x3c, 0x37, 0x24, 0x19, 0x3f,
  0x5a, 0x0f, 0x8b, 0x3e, 0x12, 0x94, 0x94, 0xbc, 0x9d, 0x04, 0x0d, 0x3f,
  0xe3, 0x5b, 0xc5, 0x3e, 0xdb, 0x39, 0x27, 0x3e, 0x16, 0x45, 0xc7, 0x3e,
  0xa5, 0x07, 0x18, 0x3f, 0x2c, 0x76, 0x5e, 0x3e, 0x09, 0x68, 0x5a, 0x3e,
  0x50, 0xf8, 0xff, 0xff, 0x9a, 0xfd, 0xff, 0xff, 0x04, 0x00, 0x00, 0x00,
  0x0c, 0x00, 0x00, 0x00, 0x26, 0x07, 0x8c, 0x3e, 0x8f, 0x6e, 0x69, 0x3e,
  0x14, 0xc9, 0x22, 0xbe, 0x6c, 0xf8, 0xff, 0xff, 0xb6, 0xfd, 0xff, 0xff,
  0x04, 0x00, 0x00, 0x00, 0xe0, 0x01, 0x00, 0x00, 0xf9, 0x0e, 0x03, 0xbe,
  0x3d, 0x6b, 0x2a, 0x3f, 0x43, 0xae, 0x21, 0x3d, 0x6a, 0xfa, 0x2d, 0xbf,
  0xfb, 0xcc, 0x1c, 0x3f, 0x29, 0x69, 0x3d, 0x3f, 0x8e, 0x60, 0x33, 0xbe,
  0x7d, 0xaf, 0xd2, 0xbe, 0x68, 0x76, 0xc7, 0x3e, 0x44, 0x71, 0xee, 0x3e,
  0xcc, 0x93, 0x94, 0x3f, 0x86, 0x19, 0x5c, 0x3f, 0x3a, 0x03, 0xa9, 0xbb,
  0x8c, 0xf6, 0x02, 0x3f, 0xed, 0x61, 0xe4, 0x3d, 0x7a, 0x4d, 0x00, 0xbf,
  0xb9, 0x88, 0xd2, 0xbf, 0x78, 0x70, 0x0a, 0xc0, 0xec, 0xa8, 0xda, 0x3e,
  0xe4, 0x7f, 0x8f, 0x3f, 0xe5, 0x50, 0x1c, 0x3f, 0xe3, 0x17, 0x4c, 0x3e,
  0x66, 0x17, 0x2d, 0x3f, 0xeb, 0xaa, 0xbf, 0xbf, 0xbe, 0x1a, 0x17, 0xbd,
  0x5d, 0x3f, 0xcd, 0x3e, 0x03, 0x66, 0x39, 0x3e, 0xaa, 0xf6, 0x8c, 0xbe,
  0xee, 0xca, 0x10, 0x40, 0x1e, 0xeb, 0xaa, 0x3e, 0xe3, 0x2d, 0xe5, 0x3d,
  0x97, 0x3a, 0xc4, 0xbf, 0x4e, 0xcd, 0x11, 0x3e, 0x8f, 0x98, 0x9e, 0x3e,
  0xb7, 0x85, 0x5f, 0x3f, 0x90, 0xb6, 0xd0, 0x3e, 0x10, 0xd1, 0x24, 0xbe,
  0x52, 0xbf, 0x14, 0xbf, 0x63, 0x05, 0x16, 0xbe, 0x6c, 0x5d, 0xc4, 0x3e,
  0x5b, 0xde, 0x8a, 0xbf, 0x15, 0x3b, 0x28, 0xbf, 0x6b, 0x59, 0x13, 0x3f,
  0x0f, 0xe8, 0x04, 0xbf, 0xed, 0xf5, 0x37, 0xbe, 0x2d, 0xa5, 0xc0, 0x3d,
  0x6b, 0xf1, 0x8a, 0x3e, 0x80, 0x45, 0x73, 0x3e, 0xf3, 0xe3, 0x0e, 0xbf,
  0x4f, 0x21, 0x6d, 0xbe, 0xe8, 0xc8, 0xf4, 0x3e, 0x0d, 0xc6, 0x91, 0xbe,
  0xfe, 0xbf, 0x43, 0x3f, 0x58, 0x49, 0xe9, 0xbe, 0x7e, 0x10, 0xa5, 0xbe,
  0x1f, 0x98, 0x92, 0xbf, 0x8d, 0x00, 0x9f, 0x3d, 0x47, 0xdc, 0x41, 0x3f,
  0xcc, 0xbd, 0x14, 0x3f, 0xc3, 0xbb, 0x4c, 0xbf, 0xb7, 0xaa, 0xe2, 0x3e,
  0x9e, 0x8a, 0x01, 0x3e, 0xc1, 0xe0, 0xe9, 0xbe, 0x47, 0x21, 0x11, 0x3f,
  0x7e, 0x66, 0x28, 0x3f, 0xc1, 0xf7, 0x43, 0xbf, 0x70, 0xaf, 0x71, 0x3f,
  0x51, 0x86, 0x86, 0x3e, 0xfa, 0x28, 0x73, 0xbe, 0xf3, 0x85, 0xa9, 0x3f,
  0xdf, 0xce, 0x93, 0xbe, 0x15, 0x4a, 0x47, 0xbf, 0x87, 0x3b, 0x8a, 0x3d,
  0x47, 0x82, 0xef, 0x3d, 0xac, 0xb3, 0x97, 0x3e, 0xec, 0xb0, 0xca, 0x3e,
  0xb7, 0x0b, 0x9d, 0x3f, 0x02, 0x7e, 0xc1, 0xbf, 0x66, 0x27, 0x8f, 0xbe,
  0x1a, 0xb6, 0x8f, 0x3e, 0x54, 0x06, 0xb3, 0x3e, 0x18, 0x7c, 0x4c, 0x3e,
  0xb9, 0x1f, 0xfc, 0xbd, 0xee, 0xd8, 0xbd, 0x3f, 0x4e, 0xa5, 0x05, 0x3f,
  0x8c, 0x1a, 0xb6, 0x3d, 0x1d, 0x5a, 0xec, 0x3e, 0xfa, 0x3e, 0x85, 0xbe,
  0xd0, 0xce, 0xb7, 0xbe, 0x45, 0x33, 0xbd, 0x3f, 0x17, 0x02, 0x40, 0x3f,
  0x2b, 0x9e, 0x27, 0x3e, 0x51, 0x20, 0xb8, 0xbe, 0x59, 0x72, 0x23, 0x3f,
  0x08, 0x70, 0x78, 0xbf, 0xd0, 0x46, 0x29, 0x3e, 0x04, 0x81, 0x25, 0x3f,
  0xfd, 0xe6, 0x0b, 0x3e, 0x43, 0xa8, 0x09, 0xbe, 0x6a, 0x36, 0x89, 0x3e,
  0xd8, 0x89, 0xf3, 0xbe, 0xe9, 0xcc, 0x30, 0x3f, 0xe8, 0x64, 0xf0, 0xbd,
  0xe1, 0x9f, 0x16, 0x3c, 0xbe, 0x2f, 0x0b, 0x3f, 0x46, 0x1d, 0x69, 0x3f,
  0xe3, 0x10, 0x8c, 0x3e, 0x7c, 0x1d, 0xc2, 0x3f, 0x16, 0x0d, 0xfc, 0x3d,
  0x02, 0xff, 0x3b, 0x3f, 0x9d, 0x27, 0xfd, 0xbc, 0xa2, 0x79, 0x7a, 0x3e,
  0x4f, 0x21, 0x65, 0xbf, 0x58, 0xe6, 0xf7, 0x3f, 0x09, 0x33, 0x13, 0xbf,
  0x6d, 0xed, 0xed, 0xbe, 0x33, 0x4e, 0x13, 0x3f, 0x4e, 0x16, 0xe9, 0x3c,
  0x7d, 0x60, 0x36, 0xbf, 0xdf, 0x5a, 0xa8, 0xbf, 0xa2, 0xff, 0xff, 0xff,
  0x04, 0x00, 0x00, 0x00, 0x50, 0x00, 0x00, 0x00, 0x0a, 0x56, 0xcf, 0x3e,
  0x99, 0x40, 0x69, 0x3d, 0x05, 0x84, 0x2c, 0xbf, 0x5c, 0xea, 0xa1, 0x3e,
  0x2a, 0x34, 0xca, 0xbe, 0x02, 0xb9, 0xe1, 0x3d, 0x26, 0xbd, 0xf6, 0x3d,
  0xe0, 0xfd, 0x8c, 0xbe, 0xf0, 0x62, 0x89, 0x3e, 0xad, 0x2d, 0x9a, 0x3e,
  0x90, 0x83, 0x6e, 0x3d, 0xdc, 0xdd, 0x4e, 0x3f, 0x77, 0x8c, 0xf1, 0xbc,
  0xb0, 0x02, 0x07, 0x3f, 0xf4, 0x2f, 0x1b, 0x3f, 0x2b, 0x9a, 0xf9, 0x3e,
  0xd9, 0xc2, 0x28, 0x3f, 0xe2, 0xd9, 0x17, 0x3f, 0xc5, 0x81, 0xfc, 0x3e,
  0x64, 0xc2, 0x1a, 0xbe, 0x00, 0x00, 0x06, 0x00, 0x08, 0x00, 0x04, 0x00,
  0x06, 0x00, 0x00, 0x00, 0x04, 0x00, 0x00, 0x00, 0xf0, 0x00, 0x00, 0x00,
  0xe7, 0x3b, 0x80, 0xbf, 0x08, 0x0f, 0x39, 0xbf, 0x3e, 0xeb, 0x5b, 0xbf,
  0xce, 0x86, 0x0b, 0xbe, 0x80, 0x8c, 0x70, 0xbf, 0x48, 0xf2, 0xb7, 0x3f,
  0x6e, 0x81, 0x8a, 0xbf, 0xdc, 0xfa, 0x41, 0x3f, 0xbd, 0x2e, 0x21, 0xbf,
  0x4a, 0x7d, 0x63, 0x3d, 0xde, 0x0a, 0x9b, 0xbe, 0xfb, 0x47, 0x80, 0xbf,
  0xa0, 0x51, 0xcd, 0x3c, 0x84, 0x75, 0xd7, 0x3f, 0xa6, 0x3b, 0xb6, 0xbf,
  0x12, 0x80, 0x94, 0x3f, 0xb9, 0x6e, 0xee, 0xbf, 0x38, 0x0d, 0xbf, 0xbf,
  0x11, 0x59, 0xc5, 0xbd, 0x4b, 0x16, 0xc2, 0x3f, 0x5a, 0x2e, 0x2d, 0xbf,
  0xa7, 0x42, 0xe1, 0xbb, 0xf0, 0x1a, 0x8d, 0xbf, 0x9c, 0xdb, 0xb9, 0xbf,
  0x5d, 0x3a, 0x56, 0xbf, 0x7b, 0xb9, 0x94, 0x3f, 0x69, 0x1b, 0x9f, 0xbf,
  0xc2, 0x1b, 0x9e, 0x3e, 0x9d, 0x47, 0xbd, 0xbf, 0x91, 0x58, 0xd1, 0x3f,
  0x25, 0xca, 0x8f, 0xbf, 0xab, 0xbd, 0x94, 0xbd, 0xf8, 0x31, 0x8f, 0x3d,
  0x6e, 0x3d, 0xba, 0x3f, 0xf7, 0xc3, 0x7d, 0xbf, 0xb7, 0x3d, 0xa1, 0x3f,
  0xab, 0x5e, 0x06, 0xbf, 0xdc, 0x0c, 0x09, 0xbf, 0x25, 0x36, 0x5c, 0x3f,
  0xc3, 0x55, 0xac, 0xbe, 0x7f, 0x35, 0xf2, 0xbd, 0x2d, 0xa9, 0x1f, 0xbf,
  0xa2, 0x00, 0x54, 0xbe, 0xad, 0x36, 0x97, 0xbf, 0xe1, 0xac, 0xd2, 0xbf,
  0x85, 0x07, 0xa2, 0x3f, 0xf6, 0x79, 0x8a, 0xbe, 0xaa, 0xb6, 0xb0, 0x3f,
  0xf6, 0xed, 0x87, 0xbf, 0x99, 0x8e, 0x6b, 0x3d, 0x9d, 0x0c, 0x89, 0xbf,
  0xf6, 0x42, 0x34, 0xbf, 0xc0, 0xcd, 0x86, 0x3d, 0x6a, 0xda, 0x7e, 0x3f,
  0x37, 0x77, 0xa2, 0xbe, 0x6d, 0xee, 0xa2, 0xbe, 0x50, 0x28, 0x5e, 0xbf,
  0xa0, 0xdc, 0xc5, 0xbf, 0x8f, 0xf2, 0xd2, 0x3f, 0xb0, 0xf1, 0xf6, 0x3e,
  0xbc, 0xfb, 0xff, 0xff, 0x0c, 0x00, 0x14, 0x00, 0x04, 0x00, 0x08, 0x00,
  0x0c, 0x00, 0x10, 0x00, 0x0c, 0x00, 0x00, 0x00, 0x20, 0x00, 0x00, 0x00,
  0x14, 0x00, 0x00, 0x00, 0x08, 0x00, 0x00, 0x00, 0xe0, 0x03, 0x00, 0x00,
  0x01, 0x00, 0x00, 0x00, 0x07, 0x00, 0x00, 0x00, 0x01, 0x00, 0x00, 0x00,
  0x00, 0x00, 0x00, 0x00, 0x0a, 0x00, 0x00, 0x00, 0xd8, 0x00, 0x00, 0x00,
  0x24, 0x00, 0x00, 0x00, 0x84, 0x01, 0x00, 0x00, 0xe4, 0x02, 0x00, 0x00,
  0x7c, 0x02, 0x00, 0x00, 0x1c, 0x01, 0x00, 0x00, 0x58, 0x00, 0x00, 0x00,
  0x14, 0x02, 0x00, 0x00, 0xb4, 0x01, 0x00, 0x00, 0x3c, 0x03, 0x00, 0x00,
  0xd6, 0xfc, 0xff, 0xff, 0x10, 0x00, 0x00, 0x00, 0x0a, 0x00, 0x00, 0x00,
  0x14, 0x00, 0x00, 0x00, 0x34, 0x00, 0x00, 0x00, 0x02, 0x00, 0x00, 0x00,
  0x01, 0x00, 0x00, 0x00, 0x14, 0x00, 0x00, 0x00, 0x1d, 0x00, 0x00, 0x00,
  0x64, 0x65, 0x65, 0x70, 0x71, 0x2f, 0x6d, 0x6f, 0x64, 0x65, 0x6c, 0x2f,
  0x61, 0x63, 0x74, 0x69, 0x6f, 0x6e, 0x5f, 0x76, 0x61, 0x6c, 0x75, 0x65,
  0x2f, 0x52, 0x65, 0x6c, 0x75, 0x00, 0x00, 0x00, 0x60, 0xfc, 0xff, 0xff,
  0x1e, 0xfd, 0xff, 0xff, 0x10, 0x00, 0x00, 0x00, 0x09, 0x00, 0x00, 0x00,
  0x14, 0x00, 0x00, 0x00, 0x54, 0x00, 0x00, 0x00, 0x02, 0x00, 0x00, 0x00,
  0x14, 0x00, 0x00, 0x00, 0x14, 0x00, 0x00, 0x00, 0x3c, 0x00, 0x00, 0x00,
  0x64, 0x65, 0x65, 0x70, 0x71, 0x2f, 0x6d, 0x6f, 0x64, 0x65, 0x6c, 0x2f,
  0x61, 0x63, 0x74, 0x69, 0x6f, 0x6e, 0x5f, 0x76, 0x61, 0x6c, 0x75, 0x65,
  0x2f, 0x66, 0x75, 0x6c, 0x6c, 0x79, 0x5f, 0x63, 0x6f, 0x6e, 0x6e, 0x65,
  0x63, 0x74, 0x65, 0x64, 0x5f, 0x31, 0x2f, 0x77, 0x65, 0x69, 0x67, 0x68,
  0x74, 0x73, 0x2f, 0x74, 0x72, 0x61, 0x6e, 0x73, 0x70, 0x6f, 0x73, 0x65,
  0x00, 0x00, 0x00, 0x00, 0xc8, 0xfc, 0xff, 0xff, 0x86, 0xfd, 0xff, 0xff,
  0x10, 0x00, 0x00, 0x00, 0x08, 0x00, 0x00, 0x00, 0x14, 0x00, 0x00, 0x00,
  0x2c, 0x00, 0x00, 0x00, 0x02, 0x00, 0x00, 0x00, 0x01, 0x00, 0x00, 0x00,
  0x06, 0x00, 0x00, 0x00, 0x0e, 0x00, 0x00, 0x00, 0x64, 0x65, 0x65, 0x70,
  0x71, 0x2f, 0x69, 0x6e, 0x70, 0x75, 0x74, 0x2f, 0x4f, 0x62, 0x00, 0x00,
  0x08, 0x00, 0x0c, 0x00, 0x04, 0x00, 0x08, 0x00, 0x08, 0x00, 0x00, 0x00,
  0x10, 0x00, 0x00, 0x00, 0x04, 0x00, 0x00, 0x00, 0x01, 0x00, 0x00, 0x00,
  0x00, 0x00, 0x7f, 0x43, 0x01, 0x00, 0x00, 0x00, 0x00, 0x00, 0x00, 0x00,
  0xde, 0xfd, 0xff, 0xff, 0x10, 0x00, 0x00, 0x00, 0x07, 0x00, 0x00, 0x00,
  0x10, 0x00, 0x00, 0x00, 0x48, 0x00, 0x00, 0x00, 0x01, 0x00, 0x00, 0x00,
  0x14, 0x00, 0x00, 0x00, 0x36, 0x00, 0x00, 0x00, 0x64, 0x65, 0x65, 0x70,
  0x71, 0x2f, 0x6d, 0x6f, 0x64, 0x65, 0x6c, 0x2f, 0x61, 0x63, 0x74, 0x69,
  0x6f, 0x6e, 0x5f, 0x76, 0x61, 0x6c, 0x75, 0x65, 0x2f, 0x66, 0x75, 0x6c,
  0x6c, 0x79, 0x5f, 0x63, 0x6f, 0x6e, 0x6e, 0x65, 0x63, 0x74, 0x65, 0x64,
  0x5f, 0x31, 0x2f, 0x4d, 0x61, 0x74, 0x4d, 0x75, 0x6c, 0x5f, 0x62, 0x69,
  0x61, 0x73, 0x00, 0x00, 0x7c, 0xfd, 0xff, 0xff, 0x3a, 0xfe, 0xff, 0xff,
  0x10, 0x00, 0x00, 0x00, 0x06, 0x00, 0x00, 0x00, 0x14, 0x00, 0x00, 0x00,
  0x34, 0x00, 0x00, 0x00, 0x02, 0x00, 0x00, 0x00, 0x01, 0x00, 0x00, 0x00,
  0x14, 0x00, 0x00, 0x00, 0x1f, 0x00, 0x00, 0x00, 0x64, 0x65, 0x65, 0x70,
  0x71, 0x2f, 0x6d, 0x6f, 0x64, 0x65, 0x6c, 0x2f, 0x61, 0x63, 0x74, 0x69,
  0x6f, 0x6e, 0x5f, 0x76, 0x61, 0x6c, 0x75, 0x65, 0x2f, 0x52, 0x65, 0x6c,
  0x75, 0x5f, 0x31, 0x00, 0xc4, 0xfd, 0xff, 0xff, 0x82, 0xfe, 0xff, 0xff,
  0x10, 0x00, 0x00, 0x00, 0x05, 0x00, 0x00, 0x00, 0x10, 0x00, 0x00, 0x00,
  0x48, 0x00, 0x00, 0x00, 0x01, 0x00, 0x00, 0x00, 0x03, 0x00, 0x00, 0x00,
  0x36, 0x00, 0x00, 0x00, 0x64, 0x65, 0x65, 0x70, 0x71, 0x2f, 0x6d, 0x6f,
  0x64, 0x65, 0x6c, 0x2f, 0x61, 0x63, 0x74, 0x69, 0x6f, 0x6e, 0x5f, 0x76,
  0x61, 0x6c, 0x75, 0x65, 0x2f, 0x66, 0x75, 0x6c, 0x6c, 0x79, 0x5f, 0x63,
  0x6f, 0x6e, 0x6e, 0x65, 0x63, 0x74, 0x65, 0x64, 0x5f, 0x32, 0x2f, 0x4d,
  0x61, 0x74, 0x4d, 0x75, 0x6c, 0x5f, 0x62, 0x69, 0x61, 0x73, 0x00, 0x00,
  0x20, 0xfe, 0xff, 0xff, 0xde, 0xfe, 0xff, 0xff, 0x10, 0x00, 0x00, 0x00,
  0x04, 0x00, 0x00, 0x00, 0x14, 0x00, 0x00, 0x00, 0x48, 0x00, 0x00, 0x00,
  0x02, 0x00, 0x00, 0x00, 0x01, 0x00, 0x00, 0x00, 0x03, 0x00, 0x00, 0x00,
  0x32, 0x00, 0x00, 0x00, 0x64, 0x65, 0x65, 0x70, 0x71, 0x2f, 0x6d, 0x6f,
  0x64, 0x65, 0x6c, 0x2f, 0x61, 0x63, 0x74, 0x69, 0x6f, 0x6e, 0x5f, 0x76,
  0x61, 0x6c, 0x75, 0x65, 0x2f, 0x66, 0x75, 0x6c, 0x6c, 0x79, 0x5f, 0x63,
  0x6f, 0x6e, 0x6e, 0x65, 0x63, 0x74, 0x65, 0x64, 0x5f, 0x32, 0x2f, 0x42,
  0x69, 0x61, 0x73, 0x41, 0x64, 0x64, 0x00, 0x00, 0x7c, 0xfe, 0xff, 0xff,
  0x3a, 0xff, 0xff, 0xff, 0x10, 0x00, 0x00, 0x00, 0x03, 0x00, 0x00, 0x00,
  0x14, 0x00, 0x00, 0x00, 0x50, 0x00, 0x00, 0x00, 0x02, 0x00, 0x00, 0x00,
  0x14, 0x00, 0x00, 0x00, 0x06, 0x00, 0x00, 0x00, 0x3a, 0x00, 0x00, 0x00,
  0x64, 0x65, 0x65, 0x70, 0x71, 0x2f, 0x6d, 0x6f, 0x64, 0x65, 0x6c, 0x2f,
  0x61, 0x63, 0x74, 0x69, 0x6f, 0x6e, 0x5f, 0x76, 0x61, 0x6c, 0x75, 0x65,
  0x2f, 0x66, 0x75, 0x6c, 0x6c, 0x79, 0x5f, 0x63, 0x6f, 0x6e, 0x6e, 0x65,
  0x63, 0x74, 0x65, 0x64, 0x2f, 0x77, 0x65, 0x69, 0x67, 0x68, 0x74, 0x73,
  0x2f, 0x74, 0x72, 0x61, 0x6e, 0x73, 0x70, 0x6f, 0x73, 0x65, 0x00, 0x00,
  0xe0, 0xfe, 0xff, 0xff, 0x9e, 0xff, 0xff, 0xff, 0x10, 0x00, 0x00, 0x00,
  0x02, 0x00, 0x00, 0x00, 0x10, 0x00, 0x00, 0x00, 0x4c, 0x00, 0x00, 0x00,
  0x01, 0x00, 0x00, 0x00, 0x14, 0x00, 0x00, 0x00, 0x34, 0x00, 0x00, 0x00,
  0x64, 0x65, 0x65, 0x70, 0x71, 0x2f, 0x6d, 0x6f, 0x64, 0x65, 0x6c, 0x2f,
  0x61, 0x63, 0x74, 0x69, 0x6f, 0x6e, 0x5f, 0x76, 0x61, 0x6c, 0x75, 0x65,
  0x2f, 0x66, 0x75, 0x6c, 0x6c, 0x79, 0x5f, 0x63, 0x6f, 0x6e, 0x6e, 0x65,
  0x63, 0x74, 0x65, 0x64, 0x2f, 0x4d, 0x61, 0x74, 0x4d, 0x75, 0x6c, 0x5f,
  0x62, 0x69, 0x61, 0x73, 0x00, 0x00, 0x00, 0x00, 0x04, 0x00, 0x06, 0x00,
  0x04, 0x00, 0x00, 0x00, 0x00, 0x00, 0x0e, 0x00, 0x14, 0x00, 0x04, 0x00,
  0x00, 0x00, 0x08, 0x00, 0x0c, 0x00, 0x10, 0x00, 0x0e, 0x00, 0x00, 0x00,
  0x10, 0x00, 0x00, 0x00, 0x01, 0x00, 0x00, 0x00, 0x14, 0x00, 0x00, 0x00,
  0x54, 0x00, 0x00, 0x00, 0x02, 0x00, 0x00, 0x00, 0x03, 0x00, 0x00, 0x00,
  0x14, 0x00, 0x00, 0x00, 0x3c, 0x00, 0x00, 0x00, 0x64, 0x65, 0x65, 0x70,
  0x71, 0x2f, 0x6d, 0x6f, 0x64, 0x65, 0x6c, 0x2f, 0x61, 0x63, 0x74, 0x69,
  0x6f, 0x6e, 0x5f, 0x76, 0x61, 0x6c, 0x75, 0x65, 0x2f, 0x66, 0x75, 0x6c,
  0x6c, 0x79, 0x5f, 0x63, 0x6f, 0x6e, 0x6e, 0x65, 0x63, 0x74, 0x65, 0x64,
  0x5f, 0x32, 0x2f, 0x77, 0x65, 0x69, 0x67, 0x68, 0x74, 0x73, 0x2f, 0x74,
  0x72, 0x61, 0x6e, 0x73, 0x70, 0x6f, 0x73, 0x65, 0x00, 0x00, 0x00, 0x00,
  0xb8, 0xff, 0xff, 0xff, 0x03, 0x00, 0x00, 0x00, 0x98, 0x00, 0x00, 0x00,
  0x44, 0x00, 0x00, 0x00, 0x04, 0x00, 0x00, 0x00, 0x88, 0xff, 0xff, 0xff,
  0x00, 0x00, 0x00, 0x08, 0x10, 0x00, 0x00, 0x00, 0x1c, 0x00, 0x00, 0x00,
  0x28, 0x00, 0x00, 0x00, 0x1c, 0x00, 0x00, 0x00, 0x03, 0x00, 0x00, 0x00,
  0x02, 0x00, 0x00, 0x00, 0x09, 0x00, 0x00, 0x00, 0x08, 0x00, 0x00, 0x00,
  0x01, 0x00, 0x00, 0x00, 0x07, 0x00, 0x00, 0x00, 0x00, 0x00, 0x00, 0x00,
  0x04, 0x00, 0x04, 0x00, 0x04, 0x00, 0x00, 0x00, 0xc4, 0xff, 0xff, 0xff,
  0x00, 0x00, 0x00, 0x08, 0x10, 0x00, 0x00, 0x00, 0x1c, 0x00, 0x00, 0x00,
  0x24, 0x00, 0x00, 0x00, 0x1c, 0x00, 0x00, 0x00, 0x03, 0x00, 0x00, 0x00,
  0x01, 0x00, 0x00, 0x00, 0x06, 0x00, 0x00, 0x00, 0x05, 0x00, 0x00, 0x00,
  0x01, 0x00, 0x00, 0x00, 0x02, 0x00, 0x00, 0x00, 0x00, 0x00, 0x00, 0x00,
  0x8e, 0xff, 0xff, 0xff, 0x00, 0x00, 0x00, 0x01, 0x14, 0x00, 0x18, 0x00,
  0x00, 0x00, 0x08, 0x00, 0x0c, 0x00, 0x07, 0x00, 0x10, 0x00, 0x00, 0x00,
  0x00, 0x00, 0x14, 0x00, 0x14, 0x00, 0x00, 0x00, 0x00, 0x00, 0x00, 0x08,
  0x10, 0x00, 0x00, 0x00, 0x1c, 0x00, 0x00, 0x00, 0x24, 0x00, 0x00, 0x00,
  0x1c, 0x00, 0x00, 0x00, 0x03, 0x00, 0x00, 0x00, 0x00, 0x00, 0x00, 0x00,
  0x04, 0x00, 0x00, 0x00, 0x03, 0x00, 0x00, 0x00, 0x01, 0x00, 0x00, 0x00,
  0x01, 0x00, 0x00, 0x00, 0x00, 0x00, 0x00, 0x00, 0xde, 0xff, 0xff, 0xff,
  0x00, 0x00, 0x00, 0x01, 0x01, 0x00, 0x00, 0x00, 0x04, 0x00, 0x00, 0x00,
  0xfa, 0xff, 0xff, 0xff, 0x00, 0x09, 0x06, 0x00, 0x06, 0x00, 0x05, 0x00,
  0x06, 0x00, 0x00, 0x00, 0x00, 0x09, 0x06, 0x00, 0x08, 0x00, 0x07, 0x00,
  0x06, 0x00, 0x00, 0x00, 0x00, 0x00, 0x00, 0x09
};
unsigned int source_seeking_float_len = 3992;
