unsigned char fc_tflite[] = {
  0x1c, 0x00, 0x00, 0x00, 0x54, 0x46, 0x4c, 0x33, 0x00, 0x00, 0x00, 0x00,
  0x00, 0x00, 0x0e, 0x00, 0x18, 0x00, 0x04, 0x00, 0x08, 0x00, 0x0c, 0x00,
  0x10, 0x00, 0x14, 0x00, 0x0e, 0x00, 0x00, 0x00, 0x03, 0x00, 0x00, 0x00,
  0x74, 0x22, 0x00, 0x00, 0x0c, 0x00, 0x00, 0x00, 0x10, 0x00, 0x00, 0x00,
  0x20, 0x00, 0x00, 0x00, 0x01, 0x00, 0x00, 0x00, 0x24, 0x1f, 0x00, 0x00,
  0x0f, 0x00, 0x00, 0x00, 0x54, 0x4f, 0x43, 0x4f, 0x20, 0x43, 0x6f, 0x6e,
  0x76, 0x65, 0x72, 0x74, 0x65, 0x64, 0x2e, 0x00, 0x06, 0x00, 0x00, 0x00,
  0x04, 0x1f, 0x00, 0x00, 0xcc, 0x1e, 0x00, 0x00, 0x1c, 0x00, 0x00, 0x00,
  0x14, 0x00, 0x00, 0x00, 0x0c, 0x00, 0x00, 0x00, 0x04, 0x00, 0x00, 0x00,
  0xdc, 0xdd, 0xff, 0xff, 0xe0, 0xdd, 0xff, 0xff, 0xe4, 0xdd, 0xff, 0xff,
  0x3e, 0xde, 0xff, 0xff, 0x04, 0x00, 0x00, 0x00, 0xa0, 0x1e, 0x00, 0x00,
  0x81, 0x84, 0x80, 0x84, 0x7b, 0x7f, 0x80, 0x7d, 0x80, 0x7c, 0x81, 0x7d,
  0x86, 0x81, 0x7a, 0x7e, 0x7f, 0x80, 0x85, 0x7b, 0x80, 0x80, 0x7f, 0x80,
  0x80, 0x83, 0x84, 0x83, 0x7d, 0x7c, 0x82, 0x7c, 0x82, 0x7e, 0x84, 0x7b,
  0x83, 0x7b, 0x7e, 0x8d, 0x96, 0x8a, 0x82, 0x8f, 0x99, 0x8c, 0x7e, 0x7e,
  0x86, 0x85, 0x82, 0x7e, 0x80, 0x7f, 0x81, 0x7f, 0x7c, 0x82, 0x7d, 0x80,
  0x81, 0x86, 0x7e, 0x80, 0x80, 0x7e, 0x7c, 0x77, 0x82, 0x72, 0x67, 0x6c,
  0x6a, 0x6d, 0x73, 0x78, 0x7a, 0x7b, 0x7b, 0x7e, 0x84, 0x82, 0x7f, 0x7b,
  0x84, 0x84, 0x7f, 0x84, 0x7f, 0x6e, 0x69, 0x6c, 0x89, 0x84, 0x71, 0x83,
  0x7d, 0x97, 0x94, 0x85, 0x8e, 0x96, 0x7e, 0x6c, 0x7d, 0x67, 0x6a, 0x77,
  0x7e, 0x83, 0x7f, 0x7c, 0x7d, 0x85, 0x83, 0x80, 0x7e, 0x67, 0x6c, 0x79,
  0x83, 0x9d, 0x74, 0xaf, 0x62, 0x93, 0x75, 0x93, 0x6c, 0xa0, 0x88, 0x8f,
  0x85, 0x77, 0x8c, 0x81, 0x70, 0x85, 0x82, 0x7e, 0x81, 0x80, 0x7d, 0x7e,
  0x7a, 0x60, 0x84, 0x74, 0x98, 0x7e, 0x93, 0x86, 0x85, 0x95, 0x7a, 0x89,
  0x8d, 0x81, 0x89, 0x88, 0x81, 0x77, 0x86, 0x6f, 0x7c, 0x69, 0x7c, 0x82,
  0x7c, 0x80, 0x81, 0x81, 0x77, 0x73, 0x83, 0x81, 0x7d, 0x59, 0x7d, 0x7c,
  0x6b, 0x98, 0xa7, 0x78, 0x9a, 0x90, 0x99, 0x87, 0x7e, 0xae, 0xa4, 0x6e,
  0x67, 0x52, 0x68, 0x7a, 0x82, 0x82, 0x82, 0x7d, 0x79, 0x89, 0x98, 0x9a,
  0x5c, 0x8d, 0x86, 0x95, 0x81, 0x8f, 0x82, 0x8a, 0x78, 0x8c, 0x94, 0x88,
  0x74, 0x74, 0x6c, 0xa0, 0x94, 0x5a, 0x5f, 0x80, 0x82, 0x7e, 0x85, 0x86,
  0x76, 0x6c, 0x72, 0x97, 0x82, 0x9f, 0x75, 0x7e, 0xa4, 0x77, 0x94, 0x95,
  0xa7, 0x9d, 0x8c, 0x74, 0xa2, 0x9f, 0x95, 0x95, 0xa0, 0x48, 0x5b, 0x85,
  0x7b, 0x83, 0x85, 0x93, 0x77, 0x79, 0x5a, 0x7b, 0x84, 0x86, 0xac, 0x79,
  0x6b, 0xb1, 0x88, 0x56, 0x8e, 0x84, 0x88, 0x9f, 0x87, 0x5f, 0x62, 0x9a,
  0xbe, 0x56, 0x5e, 0x85, 0x81, 0x80, 0x8f, 0x8b, 0x8b, 0xb9, 0x81, 0x73,
  0x86, 0x87, 0x63, 0x9b, 0x7c, 0x8f, 0x90, 0x7f, 0x9d, 0x98, 0xa0, 0x6c,
  0x9d, 0x7a, 0x9b, 0x90, 0xb2, 0x71, 0x6f, 0x85, 0x85, 0x89, 0x7f, 0x8f,
  0x66, 0x78, 0x77, 0x89, 0x88, 0x6e, 0x87, 0xa3, 0x47, 0x85, 0x7e, 0x4b,
  0x67, 0x82, 0x6f, 0x82, 0x90, 0xac, 0x9a, 0x73, 0x92, 0x6c, 0x6c, 0x7d,
  0x83, 0x7d, 0x7d, 0x85, 0x77, 0x8d, 0x9c, 0x84, 0x77, 0x84, 0x80, 0x69,
  0x9d, 0x87, 0x87, 0x49, 0x6f, 0x77, 0x7e, 0x95, 0x8e, 0x86, 0x73, 0xa6,
  0xbc, 0x87, 0x6b, 0x7f, 0x7f, 0x83, 0x85, 0x83, 0x98, 0x7c, 0x93, 0x88,
  0x91, 0x70, 0x85, 0x98, 0x92, 0x4c, 0x64, 0x5a, 0x80, 0x71, 0x97, 0x89,
  0x53, 0x6b, 0x82, 0x9c, 0x9b, 0xa6, 0x77, 0x81, 0x7e, 0x7f, 0x85, 0x61,
  0x71, 0x7d, 0x7d, 0xb0, 0x7f, 0xa0, 0x68, 0x8f, 0xa3, 0x88, 0x50, 0x70,
  0x43, 0x8a, 0x87, 0x76, 0x99, 0xa8, 0x9b, 0x94, 0x99, 0x9e, 0x73, 0x81,
  0x84, 0x82, 0x7c, 0x5c, 0x99, 0xa2, 0x57, 0xad, 0x8c, 0x95, 0xa7, 0x61,
  0x9d, 0x63, 0x55, 0x67, 0x73, 0x68, 0x90, 0x70, 0x97, 0x7f, 0x74, 0x96,
  0xad, 0x7c, 0x77, 0x7d, 0x86, 0x85, 0x84, 0x66, 0x92, 0xaa, 0x80, 0x93,
  0x91, 0x91, 0x87, 0x92, 0x7a, 0x3c, 0x71, 0x87, 0x71, 0x92, 0x79, 0x81,
  0x8f, 0x79, 0x7f, 0x8b, 0x8e, 0x7b, 0x78, 0x80, 0x83, 0x81, 0x7f, 0x7e,
  0x89, 0x8e, 0x93, 0x92, 0x67, 0x93, 0x98, 0x85, 0x8a, 0x68, 0x6a, 0x79,
  0x68, 0x9b, 0x77, 0x8e, 0xa9, 0x72, 0x8b, 0x7b, 0x83, 0x89, 0x7f, 0x90,
  0x80, 0x82, 0x79, 0x83, 0x92, 0x76, 0x7e, 0x80, 0x9d, 0xae, 0x8d, 0x86,
  0x75, 0x58, 0x87, 0x78, 0x8e, 0x79, 0x8c, 0x6e, 0x6c, 0x74, 0x8b, 0x92,
  0x6e, 0x7f, 0x82, 0x85, 0x7e, 0x86, 0x7a, 0x7e, 0x7c, 0x99, 0x9e, 0x90,
  0x8b, 0x74, 0x92, 0x96, 0x97, 0x73, 0x80, 0x75, 0x7a, 0x8c, 0x8c, 0x6e,
  0x96, 0x89, 0x9e, 0x7a, 0x97, 0x77, 0x80, 0x80, 0x82, 0x80, 0x76, 0x78,
  0x82, 0xa9, 0x78, 0x8c, 0x9e, 0x8d, 0xa4, 0x8f, 0xa1, 0x8c, 0x84, 0x88,
  0x7f, 0x7c, 0x88, 0x86, 0x80, 0x7e, 0x93, 0x6c, 0x78, 0x6b, 0x83, 0x81,
  0x7d, 0x7d, 0x6e, 0x89, 0x7b, 0x90, 0x7e, 0x95, 0x80, 0x6e, 0x95, 0x8e,
  0x9e, 0x88, 0x88, 0x80, 0x93, 0x69, 0x78, 0x6f, 0x75, 0x89, 0x75, 0x7c,
  0x6d, 0x7f, 0x8e, 0x7c, 0x81, 0x7d, 0x7a, 0x7d, 0x6b, 0x72, 0x87, 0x72,
  0x85, 0x90, 0x9a, 0x75, 0x79, 0xc2, 0x74, 0x9e, 0x95, 0x85, 0x7c, 0x90,
  0x79, 0x7f, 0xa4, 0x80, 0x68, 0x7c, 0x7d, 0x81, 0x85, 0x7f, 0x7f, 0x81,
  0x59, 0x77, 0x7e, 0x9f, 0x7c, 0x90, 0x94, 0xa2, 0x82, 0x82, 0x90, 0x7d,
  0x73, 0xa5, 0x65, 0x7b, 0x62, 0x71, 0x90, 0x78, 0x67, 0x7d, 0x7c, 0x7d,
  0x7b, 0x82, 0x84, 0x83, 0x75, 0x8b, 0x6a, 0x6e, 0x93, 0x8e, 0x7b, 0x6a,
  0xb0, 0x94, 0x7a, 0x7c, 0x74, 0x81, 0x73, 0x51, 0x5c, 0x5f, 0x6c, 0x72,
  0x80, 0x7f, 0x7c, 0x82, 0x81, 0x80, 0x83, 0x80, 0x85, 0x77, 0x5c, 0x54,
  0x62, 0x62, 0x51, 0x6f, 0x43, 0x57, 0x4c, 0x4d, 0x63, 0x48, 0x3c, 0x5f,
  0x5c, 0x64, 0x74, 0x7f, 0x84, 0x82, 0x82, 0x7f, 0x83, 0x7a, 0x80, 0x7d,
  0x82, 0x83, 0x82, 0x7b, 0x7f, 0x78, 0x72, 0x75, 0x7e, 0x6f, 0x6b, 0x72,
  0x7b, 0x6c, 0x79, 0x83, 0x79, 0x70, 0x74, 0x7f, 0x81, 0x80, 0x85, 0x7c,
  0x80, 0x7e, 0x7e, 0x81, 0x81, 0x82, 0x83, 0x7d, 0x80, 0x80, 0x86, 0x84,
  0x7e, 0x7e, 0x80, 0x7e, 0x7b, 0x80, 0x80, 0x7c, 0x80, 0x80, 0x71, 0x7f,
  0x7d, 0x81, 0x82, 0x82, 0x7f, 0x80, 0x7b, 0x81, 0x84, 0x80, 0x82, 0x83,
  0x7e, 0x7e, 0x7b, 0x80, 0x7f, 0x81, 0x80, 0x82, 0x84, 0x79, 0x84, 0x82,
  0x83, 0x7d, 0x7d, 0x81, 0x81, 0x81, 0x83, 0x80, 0x7e, 0x85, 0x7a, 0x7d,
  0x84, 0x86, 0x84, 0x7e, 0x80, 0x7f, 0x84, 0x7d, 0x87, 0x7c, 0x84, 0x8e,
  0x84, 0x81, 0x84, 0x7d, 0x81, 0x81, 0x80, 0x7d, 0x83, 0x81, 0x7d, 0x82,
  0x81, 0x7f, 0x7b, 0x82, 0x82, 0x7e, 0x7c, 0x83, 0x79, 0x74, 0x76, 0x75,
  0x78, 0x9c, 0x8c, 0xb6, 0xa9, 0x97, 0x88, 0x90, 0x89, 0x80, 0x7d, 0x83,
  0x82, 0x7e, 0x86, 0x7d, 0x7f, 0x81, 0x7d, 0x7d, 0x7a, 0x7f, 0x85, 0x80,
  0x78, 0x68, 0x60, 0x5b, 0x97, 0x8f, 0x6f, 0x89, 0x91, 0x76, 0x76, 0x83,
  0x7f, 0x65, 0x64, 0x7b, 0x79, 0x7d, 0x73, 0x86, 0x7c, 0x80, 0x85, 0x82,
  0x81, 0x91, 0x91, 0x8a, 0x97, 0x85, 0xa5, 0x86, 0x80, 0x8f, 0x8b, 0x99,
  0x89, 0x89, 0x72, 0x92, 0x8e, 0x81, 0x69, 0x69, 0x40, 0x56, 0x7d, 0x7b,
  0x7f, 0x7f, 0x7f, 0x81, 0x89, 0xb1, 0xae, 0x85, 0x56, 0x6f, 0x6c, 0x66,
  0x6d, 0x7e, 0x7f, 0x8e, 0x85, 0x77, 0x7d, 0x83, 0x86, 0x96, 0xa6, 0x8f,
  0x7f, 0x4d, 0x77, 0x7e, 0x7e, 0x7d, 0x79, 0x8a, 0x8d, 0x7f, 0x84, 0x64,
  0x75, 0x71, 0x82, 0x8f, 0x7f, 0x6f, 0x6e, 0x79, 0x72, 0x69, 0x8b, 0x6d,
  0x82, 0x6d, 0x80, 0x92, 0x83, 0x6c, 0x80, 0x80, 0x87, 0x85, 0x73, 0x84,
  0x8c, 0x6f, 0x4b, 0x8e, 0x5d, 0x8c, 0x83, 0x6d, 0x99, 0x74, 0x99, 0x66,
  0x7b, 0x80, 0x68, 0x88, 0xb1, 0x7f, 0x76, 0x83, 0x3f, 0x62, 0x7d, 0x7a,
  0x82, 0x80, 0x76, 0x83, 0x88, 0x72, 0x55, 0x8d, 0x73, 0x57, 0x93, 0x76,
  0x8a, 0x7e, 0x85, 0x88, 0x6d, 0x95, 0x7e, 0x8c, 0x5d, 0x80, 0x7b, 0x6a,
  0x40, 0x6d, 0x84, 0x82, 0x7b, 0x73, 0x79, 0x7d, 0x78, 0x5b, 0x71, 0x9b,
  0x96, 0x72, 0x7e, 0x86, 0x75, 0x8a, 0x89, 0xa7, 0x95, 0x60, 0x93, 0x76,
  0x72, 0x91, 0x88, 0x63, 0x6e, 0x75, 0x7c, 0x7b, 0x82, 0x7e, 0x80, 0x78,
  0x6d, 0x5c, 0x5a, 0x70, 0x90, 0x75, 0x8e, 0x8d, 0x84, 0x95, 0x84, 0xa4,
  0x87, 0xa1, 0x62, 0x8c, 0x69, 0x86, 0x71, 0x6a, 0x5f, 0x73, 0x75, 0x80,
  0x7c, 0x7f, 0x83, 0x79, 0x75, 0x6b, 0x4c, 0x64, 0x66, 0x72, 0x66, 0x7c,
  0x6a, 0x98, 0xa1, 0xac, 0x9a, 0x6e, 0x8f, 0x76, 0x7c, 0x7d, 0x6f, 0x72,
  0x62, 0x78, 0x75, 0x85, 0x83, 0x83, 0x80, 0x86, 0x8d, 0x79, 0x80, 0x81,
  0x84, 0x7d, 0x73, 0x87, 0x79, 0x93, 0xaa, 0x8e, 0x81, 0x96, 0x79, 0x83,
  0x84, 0x8f, 0x8a, 0x83, 0x78, 0x7d, 0x79, 0x84, 0x7b, 0x84, 0x81, 0x83,
  0x95, 0x84, 0x8e, 0x70, 0x7c, 0x8e, 0x5e, 0x65, 0x9b, 0x98, 0x91, 0x9c,
  0x91, 0x91, 0x66, 0x76, 0x82, 0x72, 0x74, 0x73, 0x6e, 0x7e, 0x79, 0x86,
  0x84, 0x80, 0x81, 0x8d, 0x86, 0x8d, 0x81, 0x61, 0x8d, 0x81, 0x6e, 0x51,
  0x97, 0x8d, 0xa5, 0xa1, 0x8f, 0x88, 0x6a, 0x78, 0x85, 0x75, 0x80, 0x7e,
  0x8c, 0x84, 0x84, 0x80, 0x7c, 0x84, 0x86, 0x84, 0x7b, 0x75, 0x70, 0x7d,
  0x98, 0x5d, 0x72, 0x8b, 0x96, 0x98, 0xaa, 0x8b, 0xac, 0x73, 0x57, 0x54,
  0x5a, 0x6e, 0x77, 0x80, 0x81, 0x84, 0x7c, 0x7d, 0x82, 0x84, 0x83, 0x81,
  0x7e, 0x78, 0x72, 0x87, 0x78, 0x80, 0x7a, 0x87, 0x7f, 0x87, 0xa7, 0x6c,
  0x85, 0x42, 0x66, 0x5c, 0x7a, 0x7f, 0x79, 0x68, 0x88, 0x7f, 0x80, 0x7e,
  0x7f, 0x84, 0x80, 0x7e, 0x89, 0x74, 0x74, 0x81, 0x88, 0x72, 0x8f, 0x75,
  0x8a, 0xa2, 0xa2, 0x86, 0x83, 0x63, 0x7b, 0x7e, 0x7e, 0x83, 0x8a, 0x73,
  0x87, 0x79, 0x8c, 0x84, 0x80, 0x82, 0x7a, 0x7f, 0x7c, 0x6b, 0x4f, 0x6b,
  0x81, 0x8a, 0x76, 0x89, 0x8a, 0x80, 0x8a, 0x6c, 0x53, 0x8a, 0x86, 0x79,
  0x89, 0x83, 0x6f, 0x72, 0x96, 0x96, 0x8a, 0x82, 0x7c, 0x7f, 0x7f, 0x79,
  0x6a, 0x30, 0x72, 0x9e, 0x6d, 0x91, 0x87, 0x6b, 0x76, 0x8f, 0x76, 0x9c,
  0xa5, 0x6b, 0x71, 0x8c, 0x72, 0x88, 0x94, 0x90, 0x96, 0x92, 0x8e, 0x85,
  0x7f, 0x7c, 0x85, 0x7f, 0x7c, 0x2a, 0x8a, 0x80, 0x9f, 0x90, 0x9f, 0x8e,
  0x99, 0x84, 0x82, 0x69, 0x9e, 0x9a, 0xaa, 0xae, 0x75, 0x92, 0x9f, 0x89,
  0x9c, 0x81, 0x8b, 0x7b, 0x7f, 0x84, 0x78, 0x9d, 0x9c, 0xa6, 0x9e, 0xa1,
  0x8a, 0x71, 0x91, 0x7d, 0x83, 0x7b, 0x9d, 0x97, 0x7c, 0x83, 0x95, 0x77,
  0x94, 0x9f, 0x55, 0x66, 0x9c, 0x9a, 0x87, 0x7e, 0x7e, 0x84, 0x81, 0x85,
  0x8a, 0xdf, 0xa6, 0x8b, 0x97, 0x92, 0x78, 0x88, 0x5b, 0x76, 0x71, 0x95,
  0x7a, 0x85, 0xae, 0x9a, 0xad, 0x98, 0x56, 0x76, 0x8b, 0x89, 0x81, 0x82,
  0x7f, 0x7d, 0x7a, 0x64, 0x4f, 0x83, 0x7c, 0x7f, 0x74, 0x99, 0x6b, 0x76,
  0x92, 0x8a, 0x74, 0x99, 0x86, 0x9c, 0x5e, 0x84, 0x77, 0x6e, 0x76, 0x6a,
  0x73, 0x7b, 0x8f, 0x81, 0x7e, 0x7d, 0x84, 0x6f, 0x69, 0x6b, 0x61, 0x78,
  0x6d, 0x85, 0x7e, 0x82, 0x68, 0x78, 0x7b, 0x89, 0x52, 0x85, 0x96, 0xa2,
  0x7f, 0x6d, 0x73, 0x78, 0x79, 0x86, 0x83, 0x80, 0x7d, 0x80, 0x80, 0x78,
  0x76, 0x70, 0x67, 0x68, 0x75, 0x85, 0x5a, 0x5e, 0x81, 0x7a, 0x6e, 0x69,
  0x4e, 0x5d, 0x64, 0x65, 0x78, 0x81, 0x81, 0x7b, 0x81, 0x82, 0x80, 0x81,
  0x84, 0x7d, 0x80, 0x7d, 0x80, 0x81, 0x7d, 0x79, 0x81, 0x7e, 0x74, 0x73,
  0x6a, 0x68, 0x70, 0x79, 0x82, 0x7c, 0x6a, 0x7c, 0x7e, 0x84, 0x81, 0x80,
  0x7f, 0x7d, 0x7a, 0x80, 0x7a, 0x7e, 0x7d, 0x7b, 0x7f, 0x7d, 0x81, 0x7f,
  0x82, 0x82, 0x7e, 0x7d, 0x7c, 0x7d, 0x84, 0x7e, 0x7f, 0x78, 0x6e, 0x7e,
  0x80, 0x7e, 0x82, 0x7d, 0x7d, 0x7f, 0x7a, 0x7d, 0x80, 0x80, 0x84, 0x81,
  0x7e, 0x7e, 0x81, 0x84, 0x84, 0x7e, 0x83, 0x86, 0x7b, 0x7b, 0x85, 0x83,
  0x7d, 0x7d, 0x84, 0x7f, 0x80, 0x84, 0x80, 0x82, 0x7b, 0x83, 0x82, 0x82,
  0x82, 0x83, 0x81, 0x80, 0x7f, 0x81, 0x80, 0x83, 0x83, 0x7e, 0x7c, 0x72,
  0x7e, 0x7f, 0x78, 0x80, 0x8a, 0x72, 0x72, 0x7b, 0x7d, 0x7e, 0x80, 0x80,
  0x80, 0x7f, 0x80, 0x84, 0x84, 0x81, 0x7e, 0x81, 0x7f, 0x7e, 0x7f, 0x81,
  0x95, 0x94, 0x90, 0x90, 0x9c, 0x88, 0x92, 0x94, 0x8b, 0x7b, 0x8b, 0x86,
  0x92, 0x84, 0x7f, 0x83, 0x9a, 0x8d, 0x85, 0x80, 0x80, 0x80, 0x7a, 0x7c,
  0x7e, 0x7c, 0x82, 0x89, 0x84, 0xb2, 0x86, 0xb1, 0x83, 0xa6, 0x9c, 0x86,
  0x97, 0x86, 0x7b, 0x7b, 0x72, 0x8c, 0x86, 0x78, 0x8c, 0x8c, 0x81, 0x7f,
  0x80, 0x7a, 0x7f, 0x7c, 0x71, 0x86, 0xb3, 0x9a, 0x8d, 0xae, 0x93, 0x7c,
  0xa6, 0x79, 0xab, 0x82, 0xa3, 0x8c, 0x9d, 0x7b, 0x90, 0x6c, 0x63, 0x68,
  0x68, 0x80, 0x81, 0x82, 0x81, 0x7e, 0x83, 0x80, 0x88, 0x8c, 0x99, 0x69,
  0x7a, 0x71, 0x8b, 0x83, 0x89, 0x72, 0x92, 0x7d, 0x8d, 0x8a, 0x79, 0x7b,
  0x97, 0x86, 0x81, 0x9d, 0x64, 0x77, 0x7b, 0x82, 0x82, 0x82, 0x84, 0x92,
  0x8f, 0x7b, 0x96, 0x9e, 0x6d, 0x93, 0x9b, 0x75, 0x86, 0x75, 0x84, 0x9f,
  0x84, 0x75, 0x8e, 0x86, 0x7a, 0x75, 0x75, 0x69, 0x60, 0x7a, 0x7c, 0x81,
  0x7d, 0x7f, 0x94, 0x91, 0x9e, 0x81, 0x92, 0x69, 0xa0, 0x77, 0x75, 0x9e,
  0x76, 0x9d, 0x7e, 0x76, 0x86, 0x76, 0x81, 0x75, 0x75, 0x72, 0xaa, 0x36,
  0x56, 0x82, 0x82, 0x81, 0x7e, 0x7f, 0x86, 0x76, 0x9e, 0x84, 0x8b, 0x92,
  0x6e, 0x82, 0x94, 0x7a, 0x77, 0x83, 0x8f, 0x86, 0x80, 0x85, 0x6b, 0xa5,
  0x8c, 0x78, 0x73, 0x9b, 0x4b, 0x78, 0x7f, 0x7e, 0x82, 0x7d, 0x7b, 0x75,
  0x8c, 0x9c, 0x54, 0x65, 0x8f, 0x7a, 0x98, 0x7f, 0x7a, 0x7a, 0x73, 0x91,
  0x8d, 0x76, 0x97, 0x7b, 0x85, 0x7c, 0x7d, 0x95, 0x49, 0x7c, 0x83, 0x7e,
  0x85, 0x80, 0x7e, 0x91, 0x66, 0xa2, 0xc2, 0x72, 0x82, 0x76, 0x7f, 0x84,
  0x92, 0x84, 0x96, 0x76, 0x7f, 0xa1, 0x8c, 0x7e, 0x83, 0x89, 0x62, 0x6f,
  0x29, 0x7d, 0x8d, 0x81, 0x81, 0x7d, 0x7e, 0x73, 0x79, 0x74, 0xa8, 0x85,
  0x54, 0x65, 0x45, 0x6e, 0x5b, 0x44, 0x69, 0x62, 0x83, 0x6a, 0x83, 0xaa,
  0x86, 0x8b, 0x8b, 0x93, 0x7e, 0x95, 0x81, 0x78, 0x7f, 0x83, 0x82, 0x64,
  0x90, 0x6b, 0x46, 0x13, 0x6a, 0x7c, 0x71, 0x52, 0x6a, 0x6a, 0x6b, 0x6b,
  0x77, 0x73, 0x74, 0x81, 0x8a, 0x7b, 0x8e, 0x47, 0xa8, 0x9e, 0xa2, 0x7c,
  0x81, 0x81, 0x80, 0x6d, 0x28, 0x39, 0x49, 0x50, 0x80, 0x69, 0x7b, 0x95,
  0x80, 0x9a, 0x89, 0x72, 0x6c, 0x95, 0x79, 0x81, 0x67, 0x7d, 0x75, 0x78,
  0xdc, 0xb7, 0xcd, 0x9f, 0x80, 0x7e, 0x7a, 0x6c, 0x57, 0x56, 0x72, 0xb0,
  0x70, 0x6d, 0x86, 0x78, 0x7d, 0x7c, 0x8f, 0x7e, 0x97, 0x65, 0x89, 0x7e,
  0x9c, 0x79, 0x7e, 0xa0, 0x7e, 0x9e, 0xb9, 0x85, 0x84, 0x79, 0x78, 0x86,
  0x9b, 0xaa, 0x99, 0x66, 0x8a, 0x94, 0x7f, 0x89, 0x79, 0x92, 0x90, 0x81,
  0x7d, 0x6b, 0x71, 0x95, 0x61, 0x79, 0x69, 0x5c, 0xc7, 0xa5, 0xbd, 0x82,
  0x82, 0x7a, 0x77, 0xb4, 0xa0, 0x8d, 0x9b, 0x94, 0x68, 0x92, 0x7f, 0x89,
  0x9d, 0x8f, 0x9a, 0x79, 0x8e, 0xb2, 0x84, 0x80, 0x62, 0xb0, 0x8f, 0x9b,
  0x91, 0xe4, 0xe8, 0x89, 0x83, 0x81, 0x80, 0xa7, 0x8d, 0x8d, 0x8e, 0x88,
  0x86, 0x8d, 0x9e, 0x92, 0x83, 0xb0, 0x7e, 0x8d, 0x8d, 0x66, 0x84, 0x77,
  0x8c, 0x73, 0x7d, 0x7d, 0x7f, 0xec, 0xb5, 0x87, 0x86, 0x7d, 0x78, 0x89,
  0x95, 0xa9, 0x8e, 0xac, 0x85, 0x76, 0x9b, 0x80, 0xae, 0x7f, 0x89, 0x89,
  0x89, 0xa0, 0x80, 0x93, 0x7e, 0x8d, 0x86, 0x97, 0xdb, 0xa8, 0x76, 0x88,
  0x81, 0x81, 0x78, 0x72, 0x90, 0x95, 0x62, 0x92, 0x85, 0x95, 0x99, 0x85,
  0x81, 0xad, 0x94, 0x98, 0x92, 0x93, 0x9a, 0x66, 0x8c, 0x86, 0xa0, 0x8b,
  0x83, 0xee, 0x9b, 0x83, 0x80, 0x7e, 0x81, 0x9f, 0x96, 0x94, 0xb3, 0xac,
  0x9c, 0x91, 0x81, 0xb3, 0x91, 0x99, 0x72, 0x99, 0x80, 0x83, 0x82, 0xa0,
  0x95, 0x98, 0x98, 0x83, 0xa4, 0x9f, 0x83, 0x83, 0x7d, 0x7c, 0x97, 0x92,
  0x86, 0x7c, 0x8b, 0x8b, 0x65, 0x9c, 0x92, 0x86, 0x7a, 0x99, 0x8f, 0x82,
  0x87, 0x99, 0x96, 0xa5, 0x71, 0x99, 0x9c, 0xbb, 0x9f, 0x90, 0x85, 0x7d,
  0x80, 0x7d, 0x97, 0x8c, 0x9a, 0x91, 0xa6, 0x8c, 0xad, 0x97, 0x80, 0x90,
  0x84, 0x84, 0x83, 0x69, 0x95, 0x71, 0x94, 0x80, 0xa2, 0x82, 0x8e, 0x71,
  0x9a, 0x81, 0x77, 0x7c, 0x7c, 0x7f, 0x8b, 0x82, 0x94, 0x8e, 0x85, 0x8b,
  0x89, 0x94, 0x85, 0x8b, 0x8b, 0x7b, 0x83, 0x7c, 0x97, 0x70, 0xa0, 0x9b,
  0x8e, 0xb0, 0xad, 0xab, 0xa5, 0x8f, 0x74, 0x7e, 0x83, 0x83, 0x7e, 0x65,
  0x66, 0x4f, 0x70, 0x76, 0x8e, 0x82, 0x82, 0x7d, 0x93, 0x77, 0xa0, 0x78,
  0x6e, 0x94, 0x96, 0x89, 0x82, 0xab, 0x72, 0x79, 0xbf, 0x9e, 0x88, 0x7a,
  0x7f, 0x7d, 0x7d, 0x82, 0x7b, 0x6e, 0x80, 0x7a, 0x66, 0x4e, 0x68, 0x58,
  0x77, 0x80, 0x8e, 0x9d, 0x8e, 0x84, 0x73, 0x6a, 0x61, 0x68, 0x66, 0x6d,
  0x82, 0x86, 0x86, 0x7c, 0x83, 0x7f, 0x81, 0x80, 0x82, 0x83, 0x81, 0x82,
  0x7c, 0x7c, 0x80, 0x6a, 0x77, 0x69, 0x73, 0x75, 0x6c, 0x60, 0x70, 0x82,
  0x7e, 0x7b, 0x81, 0x83, 0x80, 0x7b, 0x7b, 0x80, 0x85, 0x82, 0x7c, 0x82,
  0x80, 0x80, 0x85, 0x83, 0x7f, 0x7e, 0x7a, 0x80, 0x7b, 0x7f, 0x7d, 0x7d,
  0x82, 0x80, 0x7b, 0x83, 0x7c, 0x81, 0x7a, 0x7f, 0x7f, 0x7b, 0x82, 0x7d,
  0x7d, 0x83, 0x83, 0x85, 0x83, 0x80, 0x7d, 0x7d, 0x81, 0x84, 0x80, 0x7f,
  0x7c, 0x80, 0x81, 0x7f, 0x81, 0x7b, 0x81, 0x7a, 0x83, 0x80, 0x7e, 0x80,
  0x81, 0x7f, 0x82, 0x80, 0x7e, 0x7e, 0x7e, 0x80, 0x83, 0x84, 0x82, 0x84,
  0x7e, 0x83, 0x80, 0x7f, 0x81, 0x80, 0x80, 0x82, 0x82, 0x7c, 0x85, 0x83,
  0x80, 0x81, 0x82, 0x80, 0x7e, 0x7e, 0x7e, 0x7b, 0x80, 0x7c, 0x80, 0x80,
  0x82, 0x81, 0x82, 0x83, 0x7c, 0x75, 0x75, 0x83, 0x94, 0x8d, 0x7d, 0x69,
  0x7e, 0x76, 0x73, 0x71, 0x7b, 0x7a, 0x7a, 0x80, 0x81, 0x7c, 0x7f, 0x81,
  0x7d, 0x81, 0x7f, 0x80, 0x82, 0x96, 0x94, 0xa9, 0xba, 0x98, 0x9e, 0xaf,
  0xbb, 0x86, 0xad, 0x9f, 0x9d, 0xa2, 0x95, 0xa6, 0xcb, 0x71, 0x53, 0x63,
  0x78, 0x81, 0x84, 0x80, 0x81, 0x84, 0x7f, 0x80, 0x90, 0xb8, 0x97, 0x70,
  0x91, 0x8a, 0x9f, 0x9b, 0x88, 0x9e, 0x94, 0x85, 0xa0, 0x78, 0x9a, 0x80,
  0x85, 0x5e, 0x7b, 0x5f, 0x82, 0x86, 0x82, 0x82, 0x84, 0x83, 0x81, 0x94,
  0xb1, 0xad, 0x7d, 0xb4, 0x76, 0x90, 0x83, 0x8d, 0x88, 0x7a, 0x8d, 0x89,
  0x8e, 0x82, 0x85, 0xa1, 0x80, 0x7b, 0x91, 0x5b, 0x74, 0x7e, 0x7d, 0x7f,
  0x7f, 0x85, 0x7d, 0x81, 0x7a, 0x82, 0x96, 0x76, 0x90, 0x90, 0xa7, 0x78,
  0x8e, 0x9b, 0x7f, 0x90, 0x9a, 0x7e, 0xa1, 0x53, 0x8a, 0x88, 0x7f, 0x73,
  0x7f, 0x7a, 0x83, 0x85, 0x7e, 0x85, 0x79, 0x92, 0x92, 0x9a, 0x90, 0x80,
  0x8f, 0x88, 0x84, 0x85, 0x90, 0x74, 0xab, 0x89, 0x87, 0x91, 0x75, 0x9a,
  0x8c, 0x69, 0x69, 0x72, 0x75, 0x78, 0x7d, 0x82, 0x7f, 0x7d, 0x85, 0x97,
  0x8e, 0x7a, 0x85, 0x7b, 0x79, 0x6c, 0x89, 0x82, 0x8b, 0x8d, 0x7f, 0x8a,
  0x94, 0x72, 0xa7, 0x81, 0x7e, 0x79, 0xb0, 0x63, 0x60, 0x7b, 0x81, 0x7d,
  0x7c, 0x7f, 0x8e, 0x85, 0xab, 0x98, 0x83, 0x98, 0x86, 0x93, 0x7b, 0x63,
  0x74, 0x7c, 0x97, 0x98, 0x8b, 0x97, 0x73, 0x97, 0xa1, 0x85, 0xa4, 0x64,
  0x3c, 0x79, 0x83, 0x7a, 0x7d, 0x7f, 0x77, 0x9b, 0x73, 0x67, 0x9e, 0x68,
  0x6f, 0x66, 0x63, 0x72, 0x5f, 0x8b, 0x7a, 0x86, 0x89, 0x8f, 0x9a, 0x8a,
  0x92, 0x76, 0x82, 0x93, 0x55, 0x85, 0x7c, 0x7a, 0x80, 0x82, 0x74, 0xbc,
  0xae, 0x7c, 0x81, 0x5a, 0x83, 0x58, 0x71, 0x7a, 0x7f, 0x81, 0x88, 0x8e,
  0x77, 0xa1, 0x79, 0x8a, 0x9a, 0x6e, 0xa6, 0x80, 0x4f, 0x83, 0x7e, 0x7c,
  0x85, 0x80, 0x79, 0x94, 0x7c, 0x72, 0x4f, 0x83, 0x5b, 0x7a, 0x86, 0x7e,
  0x80, 0x78, 0x98, 0x94, 0x8e, 0x7c, 0x9d, 0x72, 0xa3, 0x54, 0x6a, 0x5b,
  0x65, 0x85, 0x7f, 0x83, 0x83, 0x7d, 0x7e, 0x8f, 0x66, 0x84, 0x73, 0x82,
  0x77, 0x87, 0x71, 0x7c, 0x9a, 0x94, 0x9a, 0x74, 0x89, 0x92, 0x80, 0x8f,
  0x66, 0x5f, 0x35, 0x68, 0x78, 0x80, 0x7d, 0x7f, 0x7c, 0x82, 0x7e, 0x89,
  0x6d, 0x6b, 0x6f, 0x65, 0x86, 0x70, 0x91, 0x77, 0x7f, 0x90, 0x82, 0x82,
  0x89, 0x80, 0x83, 0x67, 0x69, 0x86, 0x74, 0x7a, 0x89, 0x75, 0x7d, 0x7c,
  0x81, 0x83, 0x8b, 0x70, 0x78, 0x84, 0x8a, 0x6c, 0x77, 0x6c, 0x6d, 0x83,
  0x8c, 0x82, 0x92, 0x78, 0x94, 0x80, 0x76, 0x93, 0xab, 0x98, 0xa6, 0xac,
  0xa4, 0x77, 0x88, 0x84, 0x82, 0x81, 0x98, 0x85, 0xb0, 0x8a, 0x7d, 0x63,
  0x55, 0xab, 0x85, 0x8f, 0x66, 0xab, 0x8f, 0x72, 0x70, 0x7d, 0x95, 0x93,
  0x82, 0x7e, 0x7a, 0x83, 0xc2, 0x6c, 0x7c, 0x7c, 0x81, 0x81, 0x95, 0x96,
  0x9f, 0x88, 0x81, 0x96, 0x79, 0x51, 0x5d, 0x70, 0x82, 0x64, 0x6d, 0x63,
  0x87, 0x95, 0x7f, 0xac, 0x76, 0x87, 0x89, 0x96, 0x6d, 0x60, 0x7d, 0x7d,
  0x83, 0x81, 0x90, 0xb2, 0x7f, 0x95, 0x9a, 0x67, 0x8c, 0x67, 0x7b, 0x6a,
  0x67, 0x7a, 0x72, 0x8f, 0xa2, 0x80, 0x80, 0x88, 0x93, 0x8f, 0xa7, 0x88,
  0x67, 0x78, 0x7d, 0x83, 0x7d, 0x81, 0x5b, 0x9e, 0x9d, 0x96, 0x7f, 0x7d,
  0x79, 0x82, 0x81, 0x76, 0x75, 0x84, 0x80, 0x7a, 0x72, 0x9c, 0x93, 0x90,
  0x7f, 0x8d, 0x83, 0x89, 0x8e, 0x70, 0x7f, 0x7d, 0x7a, 0x81, 0x7d, 0xa2,
  0xae, 0x9b, 0xa9, 0x96, 0x83, 0xa1, 0x73, 0x8e, 0x58, 0x91, 0x84, 0x7f,
  0x89, 0x8a, 0x8c, 0x80, 0xaa, 0x80, 0x88, 0x9c, 0x83, 0x74, 0x7f, 0x81,
  0x7c, 0x83, 0x91, 0xab, 0x80, 0x6f, 0x81, 0x90, 0x86, 0x70, 0x84, 0x83,
  0x8b, 0x78, 0x92, 0x8f, 0x8d, 0x7c, 0x8e, 0x9a, 0x6d, 0x70, 0x89, 0x72,
  0x64, 0x7f, 0x7d, 0x80, 0x84, 0x84, 0x83, 0xa4, 0x80, 0x89, 0x8b, 0x8f,
  0x89, 0x89, 0x75, 0x9c, 0x81, 0x81, 0x7b, 0x82, 0x96, 0x97, 0x79, 0x82,
  0xa7, 0x70, 0xa6, 0x75, 0x6c, 0x7a, 0x83, 0x7d, 0x80, 0x7b, 0x8a, 0xa6,
  0xad, 0x8a, 0xac, 0x8f, 0x87, 0x8b, 0x98, 0x9c, 0x67, 0x9b, 0x7b, 0x86,
  0x6d, 0x87, 0xa3, 0x7c, 0x7c, 0x78, 0x6e, 0x6c, 0x73, 0x75, 0x7f, 0x82,
  0x82, 0x7d, 0x8c, 0xad, 0xd8, 0x7d, 0xa5, 0x92, 0x86, 0x84, 0x98, 0x99,
  0x86, 0x8c, 0x9b, 0x7f, 0x89, 0x83, 0x76, 0x66, 0x89, 0x9a, 0x90, 0x8a,
  0x7f, 0x7c, 0x7c, 0x80, 0x7d, 0x7f, 0x7d, 0x67, 0x64, 0x88, 0x9a, 0xbf,
  0xdb, 0xae, 0xb0, 0x9a, 0xac, 0xa4, 0x8c, 0x91, 0xa0, 0x90, 0x9c, 0xbe,
  0x84, 0x61, 0x7c, 0x7f, 0x7c, 0x7e, 0x7e, 0x7f, 0x80, 0x7d, 0x7f, 0x81,
  0x81, 0x89, 0x8f, 0x8b, 0x7e, 0x79, 0x9b, 0xa0, 0x82, 0x91, 0xac, 0x9b,
  0x9d, 0xa1, 0x9d, 0x9a, 0x94, 0x80, 0x7e, 0x82, 0x80, 0x7f, 0x80, 0x7d,
  0x7e, 0x7c, 0x80, 0x7e, 0x83, 0x7f, 0x7e, 0x84, 0x7c, 0x7d, 0x7f, 0x7e,
  0x80, 0x7c, 0x84, 0x7e, 0x7b, 0x81, 0x7f, 0x7c, 0x82, 0x83, 0x7f, 0x81,
  0x80, 0x7f, 0x7f, 0x83, 0x82, 0x7d, 0x7e, 0x7b, 0x80, 0x7c, 0x7d, 0x7f,
  0x7b, 0x7f, 0x84, 0x7f, 0x7d, 0x7f, 0x82, 0x7f, 0x80, 0x7c, 0x81, 0x7a,
  0x7f, 0x82, 0x81, 0x83, 0x81, 0x7f, 0x81, 0x7b, 0x83, 0x86, 0x7c, 0x84,
  0x7e, 0x82, 0x70, 0x61, 0x64, 0x76, 0x7b, 0x74, 0x61, 0x77, 0x81, 0x5d,
  0x5f, 0x78, 0x7b, 0x83, 0x75, 0x7c, 0x6f, 0x78, 0x82, 0x80, 0x83, 0x82,
  0x81, 0x80, 0x7f, 0x7c, 0x7e, 0x81, 0x72, 0x59, 0x4c, 0x64, 0x5c, 0x5e,
  0x4c, 0x81, 0x97, 0x6b, 0x61, 0x71, 0x6f, 0x6d, 0x64, 0x6a, 0x6c, 0x72,
  0x7d, 0x81, 0x84, 0x82, 0x7f, 0x83, 0x7f, 0x7c, 0x7f, 0x83, 0x62, 0x6d,
  0x4b, 0x40, 0x6d, 0x56, 0x49, 0x1f, 0x56, 0x59, 0x6d, 0x6f, 0x5a, 0x72,
  0x6e, 0x77, 0x83, 0x7b, 0x75, 0x83, 0x80, 0x80, 0x80, 0x7e, 0x83, 0x82,
  0x88, 0x7d, 0x6a, 0x9d, 0x74, 0x63, 0x6d, 0x7a, 0x6f, 0x8a, 0x60, 0x7c,
  0x79, 0x86, 0x75, 0x94, 0xa7, 0xab, 0xb2, 0xaa, 0xb1, 0x7c, 0x7d, 0x7b,
  0x82, 0x82, 0x7c, 0x85, 0x84, 0x76, 0x68, 0x7e, 0x84, 0x8c, 0x7f, 0x84,
  0x9e, 0x5f, 0x9a, 0x8d, 0x7f, 0x98, 0x89, 0xa0, 0x89, 0x78, 0x86, 0xa7,
  0x85, 0x81, 0x7a, 0x7a, 0x80, 0x85, 0x80, 0x77, 0x86, 0x9e, 0x70, 0x7f,
  0x86, 0x8a, 0x77, 0x74, 0x70, 0x76, 0x6f, 0x63, 0x71, 0x6c, 0x63, 0x84,
  0x78, 0x7a, 0x7c, 0xa1, 0x7a, 0x7d, 0x8c, 0x81, 0x81, 0x81, 0x7d, 0x80,
  0x8e, 0xab, 0x7d, 0x84, 0x7d, 0x8e, 0x6d, 0x85, 0x69, 0x7d, 0x6b, 0x7e,
  0x65, 0x97, 0x77, 0x8c, 0x85, 0x90, 0x9c, 0x9e, 0x99, 0x7e, 0xa1, 0x86,
  0x7b, 0x7d, 0x8f, 0x86, 0x83, 0xad, 0x93, 0x8e, 0x75, 0x95, 0x7a, 0x8e,
  0x6e, 0x68, 0x74, 0x7a, 0x68, 0x66, 0x82, 0x7a, 0x79, 0x96, 0x59, 0x94,
  0x86, 0xb7, 0x72, 0x83, 0x85, 0x7a, 0x8f, 0x6b, 0x61, 0x89, 0x88, 0x77,
  0x89, 0x87, 0x69, 0x90, 0x7c, 0x94, 0x59, 0x78, 0x97, 0x86, 0x89, 0x7d,
  0x9d, 0x78, 0x72, 0x90, 0x70, 0x85, 0x73, 0x79, 0x7d, 0x80, 0x82, 0x7a,
  0x72, 0x4c, 0x6d, 0x80, 0x7e, 0x82, 0x7b, 0x79, 0x9e, 0x5a, 0x68, 0x78,
  0x62, 0x83, 0x85, 0x9b, 0x70, 0x95, 0x94, 0x5d, 0x7f, 0x6d, 0x6f, 0x7f,
  0x7f, 0x7e, 0x75, 0x8c, 0x8e, 0x91, 0x8f, 0x83, 0x88, 0xab, 0xa2, 0x7c,
  0xa9, 0x59, 0x55, 0xb4, 0x99, 0x97, 0x81, 0x90, 0x74, 0x63, 0x6d, 0x56,
  0x4a, 0x63, 0x74, 0x7a, 0x7c, 0x7b, 0x69, 0x6b, 0x5c, 0x7f, 0x80, 0xa8,
  0x9d, 0x7f, 0x9b, 0x8b, 0xb2, 0xa5, 0x55, 0x7e, 0x91, 0x8c, 0x81, 0x82,
  0x7f, 0xa5, 0x8f, 0x8e, 0xa3, 0x79, 0x64, 0x7b, 0x83, 0x82, 0x6e, 0x70,
  0x7b, 0x81, 0x88, 0x87, 0x8b, 0x9d, 0xad, 0xa8, 0xa1, 0x65, 0x8b, 0xa3,
  0x88, 0x8e, 0xa5, 0x80, 0xa9, 0x92, 0x98, 0x7c, 0x69, 0x81, 0x73, 0x73,
  0x7b, 0x81, 0x7b, 0x7c, 0xa5, 0xa4, 0x95, 0x9e, 0x95, 0x8b, 0x86, 0x83,
  0xb1, 0x66, 0x8d, 0x8b, 0x9a, 0x9f, 0x76, 0xb3, 0x81, 0x8c, 0x7e, 0x79,
  0x7b, 0x8b, 0x69, 0x7d, 0x7d, 0x81, 0x89, 0x77, 0xa2, 0x95, 0xa6, 0x86,
  0x91, 0xa2, 0x95, 0xa2, 0x7b, 0x74, 0x8c, 0x9b, 0x98, 0xa8, 0x85, 0x94,
  0x6c, 0x6f, 0xa2, 0x81, 0x40, 0x81, 0x98, 0x81, 0x85, 0x83, 0x80, 0x69,
  0x58, 0x6c, 0x74, 0x93, 0xa0, 0x7c, 0x7d, 0x79, 0x92, 0x82, 0x95, 0xa7,
  0x99, 0x8e, 0x89, 0x95, 0x9d, 0x94, 0x7a, 0x7f, 0x6a, 0x8a, 0x6e, 0x7a,
  0x84, 0x7b, 0x8a, 0x4f, 0x7e, 0x71, 0x85, 0x83, 0x8e, 0x96, 0x83, 0x87,
  0x70, 0x90, 0x99, 0x99, 0x93, 0x8c, 0xa5, 0x66, 0x77, 0x95, 0x66, 0x7f,
  0x52, 0x5e, 0x7b, 0x78, 0x7c, 0x7c, 0x7e, 0x6d, 0x81, 0x79, 0x86, 0x82,
  0x88, 0x89, 0x6b, 0x7b, 0x97, 0x9c, 0x8e, 0x8c, 0x96, 0x79, 0x5d, 0x93,
  0x83, 0x98, 0x6b, 0xa2, 0x61, 0x57, 0x79, 0x7c, 0x7e, 0x7f, 0x82, 0xa7,
  0x78, 0x86, 0x90, 0x7f, 0x7e, 0x6e, 0x60, 0x94, 0x51, 0x80, 0x9c, 0x79,
  0x82, 0x78, 0xa0, 0x73, 0x5f, 0x93, 0x27, 0x63, 0x5d, 0x67, 0x81, 0x7b,
  0x81, 0x81, 0x85, 0x92, 0x9e, 0x6d, 0x7c, 0x5f, 0x49, 0x87, 0x68, 0x7f,
  0x73, 0x6c, 0x85, 0x92, 0xa7, 0x84, 0x77, 0x61, 0x73, 0x8c, 0x60, 0x6a,
  0x6e, 0x69, 0x7b, 0x85, 0x7c, 0x7d, 0x7e, 0x73, 0x81, 0x86, 0x5b, 0x5d,
  0xb5, 0x86, 0x6e, 0x85, 0x82, 0x7f, 0x70, 0x80, 0x6a, 0x89, 0x86, 0x98,
  0x8d, 0x63, 0x91, 0xa3, 0x6f, 0x66, 0x7d, 0x80, 0x7b, 0x83, 0x84, 0x77,
  0x72, 0x62, 0x7a, 0x58, 0x66, 0x5a, 0x7e, 0x85, 0x72, 0x6f, 0x86, 0x79,
  0x6d, 0x85, 0x60, 0x95, 0x57, 0x91, 0x99, 0x93, 0x70, 0x66, 0x82, 0x7c,
  0x7f, 0x84, 0x81, 0x7d, 0x76, 0x72, 0x8a, 0x7d, 0x7a, 0x86, 0x7b, 0x82,
  0x78, 0x8f, 0x7d, 0x79, 0x9d, 0x7c, 0x84, 0x83, 0x92, 0x9b, 0x5c, 0x70,
  0x69, 0x7e, 0x83, 0x82, 0x7f, 0x7f, 0x81, 0x7f, 0x7f, 0x8a, 0x97, 0x90,
  0x89, 0x89, 0x6c, 0xa5, 0x72, 0x7a, 0x81, 0x75, 0x82, 0x73, 0x82, 0x8d,
  0x8f, 0x87, 0x91, 0x97, 0x71, 0x84, 0x7c, 0x7b, 0x7d, 0x7a, 0x82, 0x7e,
  0x83, 0x87, 0x7a, 0x65, 0x5e, 0x6c, 0x86, 0x7a, 0x5a, 0x72, 0x7e, 0x8b,
  0x6b, 0x76, 0x7d, 0x5a, 0x82, 0x63, 0x7d, 0x83, 0x75, 0x7e, 0x80, 0x81,
  0x82, 0x80, 0x7d, 0x7f, 0x84, 0x90, 0x80, 0x6f, 0x63, 0x4a, 0x5d, 0x5d,
  0x4b, 0x61, 0x28, 0x34, 0x42, 0x42, 0x4b, 0x40, 0x4f, 0x58, 0x71, 0x7e,
  0x84, 0x7b, 0x81, 0x84, 0x81, 0x7f, 0x80, 0x7d, 0x84, 0x7f, 0x7d, 0x7b,
  0x7d, 0x7a, 0x82, 0x7b, 0x74, 0x7e, 0x65, 0x74, 0x7d, 0x7c, 0x75, 0x7c,
  0x80, 0x79, 0x74, 0x81, 0x7d, 0x85, 0x83, 0x83, 0x7d, 0x81, 0x7f, 0x82,
  0x83, 0x7f, 0x7f, 0x7d, 0x7d, 0x84, 0x7c, 0x7f, 0x7f, 0x83, 0x7e, 0x83,
  0x86, 0x80, 0x81, 0x84, 0x86, 0x82, 0x7f, 0x86, 0x7b, 0x85, 0x7f, 0x7d,
  0x7a, 0x7e, 0x7f, 0x82, 0x7e, 0x81, 0x81, 0x80, 0x80, 0x81, 0x7b, 0x7d,
  0x82, 0x7c, 0x7c, 0x7c, 0x7c, 0x7f, 0x80, 0x82, 0x80, 0x7a, 0x7e, 0x81,
  0x7f, 0x81, 0x7c, 0x86, 0x85, 0x80, 0x7f, 0x82, 0x7f, 0x84, 0x81, 0x7e,
  0x81, 0x80, 0x77, 0x6b, 0x6d, 0x72, 0x70, 0x88, 0x82, 0x97, 0x82, 0x7c,
  0x70, 0x6d, 0x72, 0x74, 0x7d, 0x83, 0x80, 0x86, 0x7d, 0x80, 0x7d, 0x82,
  0x82, 0x7f, 0x7b, 0x7f, 0x75, 0x6f, 0x81, 0x7a, 0x8e, 0x95, 0x8d, 0x9f,
  0x7a, 0x95, 0x95, 0x8d, 0x98, 0xaf, 0x9e, 0x75, 0x83, 0x98, 0x7f, 0x7a,
  0x85, 0x81, 0x7e, 0x81, 0x75, 0x58, 0x62, 0x82, 0x5d, 0x77, 0x89, 0x8f,
  0x8a, 0x68, 0x85, 0x92, 0x92, 0x87, 0x9a, 0xa8, 0x5e, 0x98, 0x8c, 0x91,
  0xaf, 0xaf, 0x85, 0x7f, 0x83, 0x81, 0x82, 0x81, 0x47, 0x4f, 0x60, 0x85,
  0x8c, 0x80, 0x8b, 0x88, 0x6f, 0x8d, 0x83, 0x69, 0x8d, 0x94, 0x92, 0x63,
  0xac, 0x87, 0x84, 0x98, 0x96, 0xcd, 0x8c, 0x84, 0x80, 0x7d, 0x7f, 0x66,
  0x71, 0x92, 0x76, 0x7e, 0x73, 0x83, 0x80, 0x88, 0x81, 0x95, 0x89, 0x82,
  0x7f, 0x86, 0x80, 0x9c, 0x94, 0x79, 0x97, 0x79, 0xc1, 0x98, 0x8e, 0x8a,
  0x81, 0x79, 0x82, 0x61, 0x3e, 0x8a, 0x91, 0x70, 0x9d, 0x71, 0x9e, 0x87,
  0x86, 0x70, 0x98, 0x75, 0x91, 0x89, 0x92, 0x77, 0x70, 0x86, 0x92, 0x91,
  0xa7, 0xd3, 0x82, 0x84, 0x7d, 0x7e, 0x7e, 0x6c, 0x30, 0x75, 0x61, 0x6d,
  0x9a, 0x93, 0x78, 0x90, 0x7b, 0x8c, 0x77, 0x77, 0x8b, 0x7a, 0x7b, 0x97,
  0xa8, 0x83, 0x6d, 0xac, 0xe0, 0xb9, 0x9b, 0x7f, 0x7e, 0x80, 0x82, 0x76,
  0x59, 0x76, 0xa1, 0x6f, 0x76, 0x73, 0x89, 0xa1, 0x8b, 0x83, 0x75, 0x73,
  0x6c, 0x8b, 0x73, 0x82, 0x73, 0xa2, 0x86, 0x9d, 0xd3, 0xca, 0x94, 0x7a,
  0x85, 0x82, 0x80, 0x62, 0x9a, 0x7d, 0x5a, 0xa8, 0x97, 0xa2, 0x9b, 0x81,
  0x94, 0x94, 0x8a, 0x91, 0x78, 0x63, 0x77, 0x68, 0x68, 0x82, 0x75, 0xa1,
  0xfe, 0xd5, 0xa3, 0x77, 0x7d, 0x7b, 0x82, 0x58, 0x85, 0x77, 0x92, 0x79,
  0x89, 0x8b, 0x7c, 0x98, 0x97, 0xa3, 0x86, 0x7f, 0x85, 0x70, 0x80, 0x69,
  0x5a, 0x66, 0x42, 0xa4, 0xf5, 0xff, 0xa5, 0x80, 0x7c, 0x80, 0x7d, 0x70,
  0x82, 0x80, 0xaa, 0x91, 0x86, 0x79, 0x9d, 0x93, 0x86, 0x9a, 0x7b, 0x8e,
  0x6f, 0x64, 0x7f, 0x6a, 0x63, 0x36, 0x1d, 0x01, 0x01, 0x91, 0xb2, 0x7f,
  0x81, 0x83, 0x82, 0x87, 0x89, 0x9b, 0x6b, 0xa2, 0x79, 0x94, 0x83, 0x94,
  0xb4, 0x88, 0x7a, 0x6a, 0x75, 0x79, 0x80, 0x7d, 0x97, 0x76, 0x90, 0x42,
  0x16, 0x49, 0x7b, 0x76, 0x81, 0x81, 0x84, 0x94, 0x92, 0x7d, 0x82, 0x7d,
  0x85, 0x8e, 0x9b, 0x8d, 0x81, 0x86, 0x89, 0x7b, 0x77, 0x6a, 0x83, 0x70,
  0x90, 0x6a, 0xae, 0x8b, 0x9c, 0x3e, 0x7a, 0x83, 0x7f, 0x82, 0x7c, 0x88,
  0x7a, 0x68, 0x90, 0x7b, 0x79, 0x93, 0x7b, 0x85, 0x8d, 0x71, 0x6a, 0x63,
  0x8a, 0x7a, 0xb5, 0x87, 0x75, 0x92, 0x41, 0x8b, 0xb8, 0x71, 0x7a, 0x79,
  0x7f, 0x7c, 0x71, 0x8a, 0x63, 0x8b, 0x66, 0x60, 0x72, 0x5a, 0x88, 0x7c,
  0x7c, 0x83, 0x6a, 0x90, 0x6b, 0x76, 0x70, 0x7b, 0xa2, 0x6a, 0xad, 0x91,
  0x72, 0x82, 0x75, 0x7a, 0x82, 0x82, 0x70, 0x99, 0x8c, 0x84, 0xab, 0x67,
  0x88, 0x76, 0x79, 0x7b, 0x5d, 0x53, 0x6c, 0x7e, 0x96, 0x9d, 0x9f, 0x99,
  0x7c, 0x99, 0x65, 0x96, 0x83, 0x71, 0x82, 0x7f, 0x7e, 0x82, 0x76, 0x81,
  0xa6, 0x96, 0xb4, 0x7b, 0x7a, 0x70, 0x68, 0x79, 0x8c, 0x83, 0x99, 0x89,
  0x82, 0x8b, 0x79, 0x87, 0x7b, 0x6c, 0x89, 0x99, 0x84, 0x75, 0x7f, 0x86,
  0x83, 0x80, 0xa4, 0x90, 0xad, 0x85, 0x87, 0x80, 0x94, 0x7d, 0x90, 0x84,
  0x8c, 0x80, 0x73, 0x8e, 0x81, 0x8b, 0x78, 0x77, 0xa0, 0x9a, 0x8d, 0xb4,
  0x9d, 0x87, 0x7e, 0x7f, 0x82, 0x81, 0x8f, 0xaa, 0x81, 0x95, 0x88, 0x83,
  0x8a, 0x97, 0x8c, 0x85, 0x87, 0x87, 0x9a, 0x7c, 0x8d, 0x97, 0x9a, 0x98,
  0x7c, 0x6b, 0xa0, 0x8e, 0x6f, 0xa0, 0x7b, 0x7d, 0x81, 0x7e, 0x79, 0x83,
  0xa4, 0x83, 0x96, 0x98, 0x97, 0x7d, 0x8e, 0x8e, 0x8d, 0x86, 0x91, 0x92,
  0x76, 0x98, 0x7f, 0x7b, 0xa0, 0x90, 0x98, 0x89, 0x9a, 0x94, 0x83, 0x81,
  0x7e, 0x81, 0x81, 0x89, 0x9e, 0x6e, 0x7f, 0x8a, 0x69, 0xa5, 0x70, 0x85,
  0x9c, 0x8b, 0x9b, 0x88, 0x85, 0x89, 0x91, 0x97, 0x82, 0x84, 0x7a, 0xa2,
  0x90, 0x88, 0x85, 0x82, 0x80, 0x7e, 0x7b, 0x96, 0xb3, 0x94, 0x8a, 0x59,
  0xba, 0x6b, 0xaf, 0x93, 0x93, 0x6e, 0x9e, 0x6f, 0xa2, 0x7e, 0x69, 0x68,
  0xa5, 0x6f, 0x85, 0x93, 0x9d, 0x8a, 0x83, 0x81, 0x7c, 0x7c, 0x7f, 0x93,
  0x86, 0x99, 0x8f, 0x82, 0x7a, 0x9f, 0x8d, 0x81, 0x9c, 0x93, 0x97, 0x90,
  0x83, 0x89, 0xa5, 0x79, 0x78, 0x6e, 0x9b, 0x8a, 0x9f, 0x76, 0x80, 0x82,
  0x80, 0x7f, 0x7e, 0x91, 0x9e, 0x94, 0xa0, 0x88, 0x63, 0xad, 0x8d, 0x82,
  0xa4, 0xa3, 0x7d, 0xa7, 0xa1, 0xa3, 0xac, 0xb4, 0x9a, 0xc8, 0xc9, 0xb0,
  0xa3, 0x80, 0x81, 0x80, 0x7e, 0x7e, 0x7e, 0x7d, 0x7f, 0x82, 0x76, 0x5c,
  0x53, 0x70, 0x76, 0x8f, 0x9e, 0x96, 0x92, 0xb2, 0x9c, 0x88, 0x6d, 0x8d,
  0x9b, 0x9f, 0x8e, 0x82, 0x7e, 0x7f, 0x84, 0x83, 0x81, 0x7d, 0x81, 0x80,
  0x82, 0x7d, 0x7d, 0x7e, 0x7d, 0x85, 0x84, 0x8d, 0x8b, 0x81, 0x82, 0x80,
  0x7f, 0x80, 0x78, 0x7f, 0x7c, 0x7b, 0x7d, 0x7d, 0x7d, 0x86, 0x85, 0x85,
  0x82, 0x7f, 0x7d, 0x85, 0x7e, 0x84, 0x7d, 0x7d, 0x82, 0x82, 0x7d, 0x83,
  0x85, 0x80, 0x7e, 0x7f, 0x84, 0x80, 0x7d, 0x7c, 0x80, 0x81, 0x7e, 0x83,
  0x7a, 0x82, 0x82, 0x7e, 0x81, 0x81, 0x80, 0x83, 0x7e, 0x82, 0x8e, 0x9b,
  0x9a, 0x88, 0x86, 0x8f, 0x92, 0x86, 0x7f, 0x92, 0x87, 0x88, 0x8b, 0x88,
  0x8a, 0x84, 0x92, 0x8e, 0x84, 0x7e, 0x7a, 0x7b, 0x84, 0x7f, 0x85, 0x7a,
  0x82, 0x85, 0x90, 0xa8, 0xaf, 0xa1, 0xb1, 0xb9, 0xb2, 0x80, 0x9c, 0x88,
  0x97, 0x93, 0x92, 0x96, 0xa0, 0xa8, 0x9d, 0x97, 0x76, 0x76, 0x7e, 0x81,
  0x7b, 0x7f, 0x83, 0x81, 0x80, 0x86, 0xa4, 0x8d, 0x8e, 0x98, 0xa6, 0x8b,
  0x82, 0xa0, 0x8e, 0xa6, 0x7e, 0x7a, 0x88, 0x9c, 0x6c, 0x9a, 0x9b, 0xb5,
  0x8e, 0x65, 0x85, 0x82, 0x80, 0x82, 0x7b, 0x7e, 0x82, 0x8a, 0x97, 0x70,
  0x7d, 0x74, 0x89, 0x75, 0x94, 0x80, 0x76, 0x76, 0x8c, 0x8d, 0x86, 0x83,
  0x79, 0x8b, 0x84, 0xa3, 0x58, 0x6a, 0x7d, 0x85, 0x80, 0x7f, 0x7d, 0x79,
  0x82, 0x6b, 0x91, 0x6d, 0x8b, 0x7d, 0x99, 0x5f, 0x6d, 0x72, 0x8f, 0x78,
  0x79, 0x85, 0x87, 0x91, 0x7f, 0xa1, 0x64, 0xa6, 0x9c, 0x7d, 0x97, 0x87,
  0x83, 0x7f, 0x7f, 0x7e, 0x80, 0x78, 0x5e, 0x83, 0x89, 0x78, 0x6b, 0x7d,
  0x6f, 0x68, 0x76, 0x8d, 0x6c, 0x92, 0x72, 0x85, 0x70, 0x7e, 0x6c, 0x93,
  0xa2, 0x81, 0x83, 0x88, 0x80, 0x7f, 0x75, 0x70, 0x82, 0x81, 0x51, 0x93,
  0x78, 0x79, 0x75, 0x81, 0x81, 0x68, 0x8e, 0x83, 0x7f, 0x75, 0x59, 0x7e,
  0x6e, 0x91, 0x6a, 0x78, 0xad, 0x7a, 0x89, 0x83, 0x7f, 0x7f, 0x79, 0x75,
  0x84, 0x79, 0x78, 0x5f, 0x6f, 0x91, 0x7d, 0x84, 0x79, 0x8d, 0x61, 0x6c,
  0x6d, 0x96, 0x68, 0x6a, 0x6e, 0x70, 0x62, 0x5c, 0x6a, 0x61, 0x75, 0x7e,
  0x85, 0x80, 0x79, 0x73, 0xa0, 0x6e, 0x76, 0x89, 0x6a, 0x5d, 0x6f, 0x82,
  0x78, 0x6c, 0x8c, 0x6b, 0x59, 0x52, 0x69, 0x6b, 0x79, 0x91, 0x70, 0x69,
  0x7a, 0x4c, 0x65, 0x7c, 0x87, 0x81, 0x74, 0x73, 0x76, 0x6f, 0x6e, 0x83,
  0x88, 0x80, 0x83, 0x74, 0x85, 0x73, 0x70, 0x7c, 0x79, 0x74, 0x6c, 0x62,
  0x81, 0x6a, 0x6a, 0x85, 0x92, 0x53, 0x70, 0x82, 0x80, 0x83, 0x7c, 0x6b,
  0x6b, 0x96, 0x74, 0x80, 0x67, 0x92, 0x75, 0x73, 0x8b, 0x81, 0x6b, 0x53,
  0x89, 0x5f, 0x76, 0x9d, 0x66, 0x9f, 0x63, 0xa0, 0x93, 0x47, 0x54, 0x85,
  0x7c, 0x82, 0x7f, 0x68, 0x79, 0x86, 0x83, 0x98, 0x99, 0x8e, 0x8a, 0x93,
  0x97, 0x7d, 0x8d, 0x71, 0x8b, 0x86, 0x70, 0x71, 0x7d, 0x7a, 0x9b, 0xb8,
  0x99, 0x7b, 0x4e, 0x86, 0x7d, 0x85, 0x7d, 0x69, 0x7d, 0x93, 0xa9, 0x78,
  0x7a, 0x83, 0x97, 0x63, 0xa0, 0x9a, 0x62, 0x7a, 0x7b, 0x76, 0x87, 0x98,
  0x69, 0xa6, 0x78, 0xb4, 0x9f, 0x76, 0x5a, 0x6e, 0x82, 0x80, 0x82, 0x7a,
  0x60, 0x8e, 0x84, 0x72, 0x91, 0x95, 0xa1, 0xad, 0x72, 0x88, 0x67, 0x98,
  0x9a, 0x63, 0x8e, 0x7c, 0x74, 0x98, 0x8d, 0x96, 0xac, 0x8e, 0x6c, 0x7f,
  0x7a, 0x82, 0x7e, 0x7d, 0x67, 0x67, 0x91, 0x94, 0x95, 0x79, 0x8e, 0x82,
  0x86, 0x9b, 0x9f, 0x82, 0x6b, 0x87, 0x81, 0x81, 0x85, 0x90, 0x6b, 0x8c,
  0x79, 0xbf, 0x59, 0x81, 0x80, 0x82, 0x7c, 0x74, 0x6d, 0x86, 0x96, 0x8f,
  0x91, 0xa1, 0x85, 0xbc, 0x8e, 0x7b, 0x7c, 0x85, 0x7e, 0x7d, 0x90, 0x96,
  0x7a, 0x8d, 0x78, 0x7d, 0x8b, 0xa7, 0x64, 0x79, 0x83, 0x7f, 0x7c, 0x6b,
  0x5b, 0x96, 0x80, 0x72, 0x8f, 0xa0, 0x9a, 0xad, 0x70, 0x83, 0xa3, 0x7c,
  0x85, 0x94, 0x79, 0x80, 0x91, 0x88, 0x98, 0x84, 0x91, 0xac, 0x6e, 0x7b,
  0x81, 0x84, 0x7e, 0x79, 0x73, 0x6f, 0x7f, 0xa9, 0x8d, 0x8e, 0x89, 0x70,
  0xb9, 0x9d, 0x6f, 0x8d, 0x8a, 0x7c, 0xa0, 0x8e, 0x70, 0x78, 0x73, 0x93,
  0x8e, 0xb7, 0x7c, 0x7f, 0x7e, 0x81, 0x80, 0x74, 0x79, 0x80, 0x82, 0x7c,
  0x7f, 0x9a, 0xa2, 0xb3, 0x8f, 0x8d, 0xa0, 0x92, 0x8a, 0x9a, 0x81, 0x93,
  0x8b, 0x84, 0xb4, 0x8d, 0x83, 0x81, 0x75, 0x82, 0x7d, 0x7c, 0x7b, 0x7d,
  0x7a, 0x8b, 0x68, 0xa1, 0x77, 0x95, 0x9a, 0x86, 0xad, 0x81, 0xa7, 0x99,
  0x90, 0x8c, 0x98, 0x61, 0xab, 0x84, 0x6f, 0x84, 0x76, 0x88, 0x7c, 0x82,
  0x82, 0x7b, 0x7e, 0x78, 0x70, 0x6c, 0x6f, 0x87, 0x8a, 0x97, 0x83, 0x98,
  0x94, 0xa3, 0xa5, 0x80, 0x8e, 0x9e, 0xb2, 0x8c, 0x88, 0x7a, 0xa2, 0x83,
  0x7c, 0x7f, 0x7c, 0x81, 0x80, 0x7d, 0x81, 0x7c, 0x7c, 0x76, 0x68, 0x91,
  0x73, 0x82, 0x9f, 0x85, 0x8a, 0xab, 0x70, 0xb6, 0x7c, 0x87, 0x77, 0x81,
  0x84, 0x94, 0x71, 0x5c, 0x66, 0x7e, 0x7f, 0x83, 0x7f, 0x83, 0x7e, 0x81,
  0x80, 0x7d, 0x6f, 0x6a, 0x7c, 0x86, 0x68, 0x63, 0x98, 0x7c, 0x91, 0x95,
  0x7a, 0x6d, 0x88, 0x9d, 0x92, 0x7e, 0x77, 0x77, 0x79, 0x82, 0x82, 0x80,
  0x84, 0x83, 0x80, 0x7f, 0x83, 0x7f, 0x7b, 0x7a, 0x71, 0x6c, 0x6c, 0x56,
  0x69, 0x62, 0x5c, 0x82, 0xa7, 0x90, 0x81, 0x67, 0x7d, 0x7b, 0x7f, 0x7e,
  0x7d, 0x83, 0x7b, 0x7d, 0x7d, 0x84, 0x7f, 0x81, 0x81, 0x7e, 0x83, 0x7e,
  0x79, 0x81, 0x7e, 0x84, 0x90, 0x7e, 0x76, 0x7c, 0x76, 0x79, 0x7f, 0x7c,
  0x83, 0x79, 0x7b, 0x83, 0x7e, 0x7f, 0x7e, 0x84, 0x80, 0x82, 0x7f, 0x7e,
  0x7c, 0x7d, 0x80, 0x7f, 0x80, 0x82, 0x7c, 0x80, 0x85, 0x7d, 0x82, 0x81,
  0x81, 0x7d, 0x7f, 0x84, 0x7b, 0x7d, 0x80, 0x7c, 0x85, 0x7a, 0x7e, 0x85,
  0x7d, 0x7e, 0x80, 0x7f, 0x81, 0x7e, 0x7e, 0x81, 0x7d, 0x7e, 0x81, 0x81,
  0x7f, 0x7f, 0x80, 0x7c, 0x81, 0x7e, 0x7f, 0x85, 0x7f, 0x81, 0x86, 0x7a,
  0x7f, 0x7a, 0x7c, 0x7f, 0x7d, 0x7d, 0x7b, 0x82, 0x81, 0x7f, 0x85, 0x82,
  0x7c, 0x86, 0x7c, 0x7c, 0x80, 0x7f, 0x7c, 0x81, 0x7b, 0x84, 0x81, 0x83,
  0x82, 0x7e, 0x7f, 0x80, 0x83, 0x7f, 0x7a, 0x7c, 0x82, 0x7c, 0x80, 0x7b,
  0x7c, 0x7f, 0x7f, 0x85, 0x7c, 0x7b, 0x84, 0x80, 0x77, 0x82, 0x7e, 0x82,
  0x81, 0x80, 0x81, 0x7f, 0x7e, 0x7b, 0x84, 0x7c, 0x7e, 0x84, 0x84, 0x81,
  0x7d, 0x86, 0x7f, 0x85, 0x80, 0x85, 0x7b, 0x85, 0x84, 0x7d, 0x82, 0x7a,
  0x75, 0x83, 0x75, 0x75, 0x80, 0x7e, 0x7c, 0x7d, 0x82, 0x81, 0x7d, 0x80,
  0x86, 0x83, 0x7f, 0x7c, 0x7c, 0x7e, 0x7f, 0x81, 0x80, 0x83, 0x7e, 0x7b,
  0x7a, 0x7a, 0x76, 0x70, 0x63, 0x64, 0x60, 0x5a, 0x63, 0x75, 0x7b, 0x7c,
  0x7d, 0x7d, 0x7f, 0x7c, 0x7f, 0x7d, 0x7f, 0x83, 0x7a, 0x7a, 0x7c, 0x86,
  0x83, 0x71, 0x68, 0x70, 0x6d, 0x63, 0x51, 0x4e, 0x66, 0x73, 0x5f, 0x5b,
  0x59, 0x64, 0x66, 0x70, 0x78, 0x85, 0x7a, 0x82, 0x86, 0x80, 0x83, 0x7f,
  0x82, 0x80, 0x7e, 0x79, 0x75, 0x9b, 0x90, 0x81, 0x9e, 0xa5, 0x81, 0x6d,
  0x93, 0xa2, 0x79, 0x6d, 0x8e, 0x6f, 0x8d, 0x6b, 0x53, 0x76, 0x84, 0x78,
  0x7e, 0x7e, 0x84, 0x7e, 0x83, 0x7e, 0x85, 0xa5, 0x8f, 0x8f, 0xa4, 0x87,
  0xb5, 0x94, 0x84, 0xa7, 0x99, 0x7f, 0x86, 0x97, 0x83, 0xa3, 0x7d, 0x8d,
  0x6f, 0x93, 0x82, 0x63, 0x7e, 0x82, 0x7f, 0x7b, 0x82, 0x81, 0x95, 0xb5,
  0xa1, 0x6d, 0x9d, 0xa0, 0x62, 0x96, 0x97, 0x81, 0x96, 0xa4, 0x73, 0x92,
  0xa8, 0x83, 0xa5, 0x8f, 0x90, 0xa2, 0x80, 0x81, 0x89, 0x84, 0x81, 0x80,
  0x7f, 0x8b, 0x87, 0xaa, 0x99, 0x8e, 0x85, 0xa0, 0xaa, 0x85, 0x81, 0x9e,
  0x9a, 0x76, 0x99, 0xa0, 0x89, 0x8a, 0x99, 0x86, 0x9c, 0x68, 0x91, 0x83,
  0x71, 0x70, 0x7b, 0x82, 0x7e, 0x91, 0x8b, 0xaf, 0x99, 0x86, 0xa9, 0x75,
  0x7c, 0x9c, 0x81, 0x7c, 0xc1, 0x72, 0xb3, 0x8c, 0x83, 0xbb, 0x96, 0x9b,
  0x77, 0x94, 0x9c, 0x83, 0x8a, 0x89, 0x8b, 0x91, 0x7d, 0x82, 0x9b, 0x9e,
  0x8f, 0x81, 0x94, 0x8d, 0x85, 0x87, 0x7b, 0x85, 0x60, 0xa0, 0x7e, 0x9c,
  0xb5, 0x79, 0x8e, 0xa0, 0xab, 0x83, 0x87, 0x70, 0x77, 0x8c, 0x8d, 0x85,
  0x85, 0x85, 0xbb, 0x82, 0x9a, 0x8d, 0x75, 0x92, 0x72, 0x96, 0xaf, 0x82,
  0x88, 0x99, 0xa6, 0x92, 0x8c, 0x97, 0xa6, 0x7f, 0xa3, 0x86, 0x9c, 0x82,
  0x68, 0x74, 0x81, 0x85, 0x7f, 0x84, 0xbe, 0xaa, 0x9f, 0x89, 0x67, 0xa3,
  0xb8, 0x77, 0x78, 0x86, 0x66, 0x37, 0x7f, 0xb0, 0x94, 0xa8, 0xa6, 0x89,
  0x78, 0x7e, 0x9b, 0x82, 0x62, 0x8d, 0x92, 0x86, 0x82, 0x7f, 0x9e, 0xad,
  0xa8, 0x76, 0xa8, 0x73, 0x74, 0x73, 0x98, 0x7b, 0x47, 0x5f, 0x8a, 0x88,
  0x94, 0x85, 0x72, 0x7a, 0x96, 0xb6, 0x87, 0x70, 0x93, 0x86, 0x83, 0x7d,
  0x85, 0x82, 0x90, 0x8f, 0x92, 0x8e, 0x7f, 0x8b, 0x90, 0x7e, 0x66, 0x7c,
  0x3a, 0x7c, 0x7b, 0x6e, 0x8f, 0xa3, 0x9b, 0xbb, 0x89, 0x5e, 0x6f, 0xb0,
  0x6c, 0x65, 0x80, 0x7f, 0x80, 0x7e, 0x82, 0x9e, 0x6a, 0x81, 0x7e, 0x61,
  0x66, 0x71, 0x81, 0x6e, 0x5e, 0x6b, 0x7f, 0x9a, 0x5c, 0xb6, 0x91, 0x8e,
  0x93, 0x97, 0xab, 0x9e, 0x58, 0x35, 0x69, 0x80, 0x7c, 0x82, 0x7d, 0x6b,
  0x84, 0x58, 0x8b, 0x9a, 0x96, 0x7b, 0x80, 0x2f, 0x88, 0x98, 0x4f, 0x96,
  0x8c, 0x8d, 0x9a, 0x90, 0x97, 0x7f, 0x78, 0x75, 0x5e, 0x48, 0x67, 0x7f,
  0x83, 0x80, 0x83, 0x68, 0x93, 0x79, 0x7e, 0x60, 0x76, 0x85, 0x50, 0x71,
  0x91, 0x81, 0x8f, 0x87, 0x79, 0x79, 0x84, 0x75, 0x8a, 0x69, 0x8b, 0x8d,
  0x9b, 0x85, 0x7e, 0x7e, 0x88, 0x84, 0x89, 0x81, 0x83, 0x8e, 0x6b, 0x78,
  0x73, 0x68, 0x7f, 0x93, 0x50, 0x90, 0x85, 0x72, 0x81, 0x7f, 0x8e, 0x83,
  0x74, 0x94, 0x88, 0x4f, 0x6d, 0x86, 0x84, 0x80, 0x83, 0x82, 0x87, 0x7c,
  0x90, 0x7a, 0x74, 0x64, 0x8d, 0x7e, 0x4c, 0x72, 0x90, 0x69, 0x88, 0x86,
  0x6b, 0x73, 0x58, 0x8f, 0x81, 0x67, 0x4c, 0x4b, 0x7d, 0x78, 0x7d, 0x7e,
  0x7d, 0x85, 0x80, 0x72, 0x5c, 0x66, 0x58, 0x6c, 0x87, 0x5f, 0x68, 0x6e,
  0x8d, 0x84, 0x8d, 0x77, 0x69, 0x69, 0x59, 0x65, 0x50, 0x72, 0x52, 0x63,
  0x82, 0x78, 0x7d, 0x83, 0x80, 0x7c, 0x7d, 0x6c, 0x55, 0x75, 0x73, 0x42,
  0x83, 0x72, 0x7b, 0x72, 0x76, 0x7f, 0x60, 0x81, 0x94, 0x6f, 0x5f, 0x6a,
  0x6a, 0x64, 0x58, 0x61, 0x7a, 0x78, 0x7b, 0x7e, 0x7d, 0x7c, 0x77, 0x59,
  0x4d, 0x8d, 0x64, 0x94, 0x83, 0x7e, 0x95, 0x75, 0x9d, 0x61, 0xa6, 0x65,
  0x81, 0x7a, 0x78, 0x94, 0x64, 0x63, 0x68, 0x61, 0x76, 0x7a, 0x7d, 0x80,
  0x83, 0x81, 0x72, 0x5f, 0x7d, 0x84, 0x8f, 0xb6, 0x49, 0x72, 0x6f, 0x64,
  0x7b, 0x67, 0x5e, 0x80, 0x65, 0x79, 0x74, 0x57, 0x47, 0x51, 0x59, 0x55,
  0x78, 0x80, 0x85, 0x85, 0x7d, 0x7a, 0x7a, 0x84, 0x8f, 0xb1, 0x89, 0x93,
  0x85, 0x6a, 0x87, 0x83, 0x64, 0x9b, 0x7f, 0x8f, 0x6b, 0x7b, 0x52, 0x71,
  0x72, 0x6b, 0x58, 0x52, 0x6b, 0x7c, 0x7f, 0x7d, 0x81, 0x82, 0x81, 0x8c,
  0x9c, 0x83, 0x8c, 0x9b, 0x95, 0xad, 0x88, 0xb3, 0x92, 0x84, 0x89, 0x7c,
  0x99, 0x84, 0x93, 0x88, 0x73, 0x93, 0x8d, 0x73, 0x7e, 0x81, 0x81, 0x7a,
  0x7d, 0x80, 0x7b, 0x7c, 0x71, 0x5f, 0x76, 0x9f, 0x93, 0xb1, 0xa5, 0x8e,
  0x8c, 0x9f, 0xaf, 0xa7, 0xa2, 0xa9, 0xb4, 0xad, 0x7c, 0x84, 0x9a, 0x7e,
  0x84, 0x7e, 0x84, 0x7a, 0x82, 0x7e, 0x80, 0x7e, 0x7c, 0x7e, 0x83, 0x7f,
  0x81, 0x7d, 0x92, 0x7f, 0x75, 0xa2, 0x9b, 0x89, 0x8c, 0x99, 0x95, 0x95,
  0x89, 0x98, 0x96, 0x89, 0x81, 0x7c, 0x7f, 0x7c, 0x82, 0x85, 0x85, 0x83,
  0x80, 0x7e, 0x7e, 0x7e, 0x83, 0x82, 0x7e, 0x7a, 0x7d, 0x83, 0x7f, 0x7a,
  0x80, 0x84, 0x7d, 0x82, 0x85, 0x7d, 0x82, 0x7b, 0x7f, 0x80, 0x7c, 0x82,
  0x81, 0x7f, 0x81, 0x80, 0x7e, 0x7e, 0x84, 0x82, 0x81, 0x84, 0x7f, 0x7f,
  0x81, 0x7d, 0x83, 0x82, 0x7c, 0x81, 0x80, 0x81, 0x7f, 0x84, 0x7e, 0x7e,
  0x83, 0x7e, 0x83, 0x81, 0x7a, 0x7d, 0x7f, 0x84, 0x81, 0x84, 0x84, 0x7f,
  0x86, 0x7e, 0x7c, 0x7e, 0x78, 0x6f, 0x73, 0x75, 0x70, 0x7c, 0x93, 0x83,
  0x7e, 0x84, 0x7c, 0x7c, 0x85, 0x7e, 0x7f, 0x7f, 0x80, 0x82, 0x80, 0x80,
  0x7d, 0x81, 0x7a, 0x75, 0x84, 0x80, 0x81, 0x7d, 0x80, 0x90, 0x75, 0x7b,
  0x7e, 0x7c, 0x8e, 0x6e, 0x79, 0x86, 0x9a, 0x95, 0x7f, 0x7c, 0x7c, 0x83,
  0x85, 0x82, 0x87, 0x83, 0x85, 0x78, 0x69, 0x6d, 0x97, 0x86, 0x83, 0x8d,
  0x8b, 0x74, 0xa2, 0x8f, 0x96, 0x7d, 0x96, 0x74, 0x87, 0x82, 0x7a, 0x7e,
  0xab, 0x93, 0x82, 0x80, 0x83, 0x84, 0x7e, 0x7d, 0x80, 0x6d, 0x63, 0x80,
  0x72, 0x7d, 0x70, 0x84, 0x90, 0x7f, 0x8d, 0x86, 0x85, 0x9c, 0x74, 0x87,
  0x95, 0x81, 0x88, 0x58, 0x7f, 0x9b, 0x74, 0x7c, 0x83, 0x84, 0x7d, 0x71,
  0x77, 0x78, 0x74, 0x9e, 0x7d, 0x6e, 0x7f, 0x78, 0x93, 0x7a, 0x88, 0x8f,
  0x88, 0x89, 0x6d, 0x9a, 0x98, 0x73, 0x8f, 0x8f, 0x74, 0xc7, 0x83, 0x6e,
  0x81, 0x7a, 0x79, 0x6e, 0x8c, 0x71, 0x75, 0x58, 0xaf, 0x7d, 0x89, 0x77,
  0x79, 0x8a, 0x6b, 0xa5, 0x7f, 0x6d, 0x9c, 0x7c, 0x8a, 0x83, 0x99, 0x97,
  0x7c, 0x81, 0x7e, 0x74, 0x7e, 0x79, 0x7c, 0x87, 0x8f, 0x78, 0xa8, 0x82,
  0x7b, 0x8e, 0x8e, 0x82, 0x8b, 0xa3, 0x7e, 0x6e, 0x91, 0x83, 0x70, 0x94,
  0x83, 0x89, 0xa7, 0x7b, 0xb0, 0x97, 0xa3, 0x83, 0x86, 0x7c, 0x7b, 0x76,
  0x7a, 0x83, 0x90, 0x80, 0x9a, 0x8c, 0x85, 0x86, 0x7b, 0x81, 0x71, 0x75,
  0x87, 0x85, 0x7f, 0x88, 0x89, 0x99, 0x79, 0x9b, 0x87, 0xb6, 0xb2, 0x78,
  0x83, 0x81, 0x81, 0x71, 0xa7, 0x91, 0x78, 0x8d, 0x7a, 0x8c, 0x95, 0x99,
  0x8f, 0x8a, 0x81, 0x59, 0x60, 0x76, 0x82, 0x9b, 0x8b, 0x96, 0x95, 0x9d,
  0x76, 0x69, 0xa9, 0x8d, 0x83, 0x7f, 0x7b, 0x7d, 0x75, 0x7f, 0x8e, 0x9e,
  0xac, 0x91, 0x92, 0x81, 0x94, 0x8d, 0x95, 0x8c, 0x81, 0x77, 0x7e, 0x86,
  0x7e, 0x8f, 0x90, 0x84, 0xa3, 0x79, 0xbf, 0x7c, 0x81, 0x85, 0x7d, 0xab,
  0x59, 0x80, 0x8d, 0x76, 0x64, 0x85, 0x78, 0x78, 0x83, 0x90, 0x8e, 0x77,
  0x8b, 0x8b, 0x7d, 0xa7, 0x98, 0xa3, 0xa4, 0xb3, 0xd7, 0x57, 0x7a, 0x78,
  0x85, 0x85, 0x82, 0x94, 0x73, 0x92, 0x7f, 0x91, 0x84, 0x8f, 0x64, 0x8e,
  0x9f, 0x96, 0x77, 0x9e, 0x82, 0x86, 0x92, 0x75, 0xb5, 0x66, 0x96, 0xa2,
  0x9e, 0x74, 0x75, 0x7c, 0x7d, 0x80, 0x84, 0x83, 0x6c, 0x84, 0x7a, 0x56,
  0x6b, 0x61, 0x87, 0x90, 0x93, 0x97, 0x92, 0x88, 0x8b, 0x85, 0x78, 0x77,
  0x51, 0x89, 0x45, 0x47, 0x6b, 0x9c, 0x7a, 0x7a, 0x80, 0x82, 0x7f, 0x7d,
  0x72, 0x5f, 0x62, 0x9c, 0x68, 0x9b, 0x72, 0x88, 0x91, 0x95, 0x93, 0x82,
  0x86, 0x6c, 0x7e, 0x8b, 0x7f, 0x67, 0x94, 0x50, 0x5a, 0x96, 0x73, 0x7c,
  0x7d, 0x80, 0x7e, 0x87, 0x74, 0x75, 0x81, 0x6c, 0x83, 0x75, 0x8a, 0x87,
  0x94, 0x93, 0x8b, 0x89, 0x81, 0x79, 0x76, 0x6c, 0x60, 0x71, 0x55, 0x84,
  0x7f, 0x5d, 0x6d, 0x81, 0x85, 0x80, 0x82, 0x82, 0x6f, 0x67, 0x75, 0x9f,
  0x90, 0x97, 0x8c, 0x8e, 0x97, 0x93, 0x8e, 0x6c, 0x8f, 0x79, 0x60, 0x84,
  0x65, 0x8d, 0x84, 0x7b, 0xb7, 0x40, 0x77, 0x7c, 0x7f, 0x7f, 0x81, 0x6c,
  0x70, 0x7e, 0x71, 0x78, 0x7c, 0x8f, 0x94, 0x95, 0x8e, 0x80, 0x72, 0x8e,
  0x71, 0x75, 0x7d, 0x73, 0x8c, 0x5e, 0x7a, 0x7d, 0x92, 0x5b, 0x80, 0x7d,
  0x84, 0x7f, 0x7c, 0x62, 0x5a, 0x9a, 0x82, 0x7d, 0x84, 0xa1, 0x90, 0x7e,
  0x85, 0x79, 0x7a, 0x77, 0x8f, 0x95, 0x7b, 0x87, 0x7d, 0x65, 0x98, 0x96,
  0x64, 0x4b, 0x76, 0x7e, 0x7f, 0x82, 0x7d, 0x42, 0x55, 0x95, 0x7f, 0xa0,
  0x8a, 0x70, 0x94, 0x79, 0x88, 0x83, 0x67, 0x99, 0x66, 0x79, 0x7c, 0x82,
  0x82, 0xa2, 0x95, 0x9c, 0x60, 0x5c, 0x73, 0x80, 0x7e, 0x7b, 0x7c, 0x4d,
  0x79, 0x7c, 0x96, 0x9b, 0x6c, 0xb3, 0x6f, 0x89, 0x73, 0x8e, 0x86, 0x7a,
  0x85, 0x92, 0x68, 0x7c, 0x99, 0x6e, 0xac, 0x83, 0x55, 0x75, 0x7d, 0x80,
  0x86, 0x7c, 0x7b, 0x7c, 0x98, 0x75, 0x83, 0x8e, 0x7c, 0x7f, 0x7d, 0x8b,
  0x94, 0x7a, 0x8a, 0x82, 0x6f, 0x80, 0x92, 0x65, 0x73, 0x81, 0x77, 0xa2,
  0x83, 0x7a, 0x7b, 0x7e, 0x7e, 0x84, 0x81, 0x7f, 0x8c, 0x67, 0x70, 0x7f,
  0x9a, 0x85, 0x8b, 0x85, 0x79, 0xa2, 0x7a, 0x92, 0x8d, 0x7a, 0x93, 0x8c,
  0x78, 0x94, 0x79, 0xaa, 0x7e, 0x81, 0x7c, 0x82, 0x80, 0x7d, 0x80, 0x72,
  0x58, 0x48, 0x65, 0x74, 0x7b, 0x77, 0x89, 0x8a, 0x9a, 0x7f, 0x93, 0x70,
  0xa5, 0x5d, 0x87, 0xaf, 0x8b, 0x92, 0x5d, 0x7c, 0x64, 0x72, 0x7d, 0x7f,
  0x81, 0x83, 0x80, 0x7f, 0x76, 0x5f, 0x72, 0x7e, 0x78, 0x61, 0x7d, 0x93,
  0x61, 0x60, 0x9b, 0x95, 0x7c, 0xab, 0x76, 0x72, 0x76, 0x65, 0x6f, 0x73,
  0x76, 0x7a, 0x7c, 0x80, 0x81, 0x7b, 0x84, 0x7e, 0x7a, 0x7a, 0x68, 0x77,
  0x7d, 0x5e, 0x62, 0x7d, 0x89, 0x83, 0x65, 0x4f, 0x5f, 0x71, 0x73, 0x6a,
  0x6b, 0x75, 0x79, 0x7d, 0x83, 0x84, 0x7f, 0x81, 0x82, 0x7b, 0x7f, 0x86,
  0x7c, 0x7f, 0x80, 0x7d, 0x86, 0x83, 0x83, 0x7f, 0x7c, 0x7f, 0x81, 0x81,
  0x7e, 0x7e, 0x81, 0x80, 0x7d, 0x82, 0x80, 0x7d, 0x82, 0x7d, 0x7e, 0x7f,
  0x82, 0x7d, 0x84, 0x7c, 0x80, 0x81, 0x84, 0x7f, 0x85, 0x7e, 0x82, 0x82,
  0x7d, 0x85, 0x80, 0x80, 0x80, 0x80, 0x7c, 0x7c, 0x7d, 0x80, 0x7e, 0x7e,
  0x83, 0x83, 0x84, 0x86, 0x84, 0x82, 0x82, 0x83, 0x85, 0x81, 0x7e, 0x80,
  0x86, 0x81, 0x81, 0x82, 0x80, 0x7e, 0x80, 0x7e, 0x7c, 0x7d, 0x80, 0x7f,
  0x7d, 0x7f, 0x80, 0x7b, 0x85, 0x7e, 0x85, 0x80, 0x81, 0x86, 0x7f, 0x7b,
  0x84, 0x7a, 0x7b, 0x7e, 0x7d, 0x82, 0x7d, 0x81, 0x79, 0x80, 0x76, 0x7f,
  0x80, 0x7b, 0x7a, 0x79, 0x85, 0x7c, 0x7f, 0x7d, 0x83, 0x83, 0x7d, 0x7f,
  0x80, 0x81, 0x7f, 0x7d, 0x80, 0x7c, 0x82, 0x7c, 0x7f, 0x7f, 0x79, 0x78,
  0x6b, 0x67, 0x65, 0x66, 0x62, 0x70, 0x7b, 0x71, 0x71, 0x7f, 0x7c, 0x81,
  0x7d, 0x86, 0x82, 0x82, 0x81, 0x7e, 0x7d, 0x82, 0x7d, 0x7e, 0x7e, 0x7f,
  0x77, 0x74, 0x74, 0x66, 0x70, 0x7f, 0x68, 0x73, 0x65, 0x7b, 0x66, 0x4e,
  0x71, 0x69, 0x78, 0x7f, 0x7e, 0x7e, 0x81, 0x7e, 0x80, 0x80, 0x81, 0x7e,
  0x7c, 0x7a, 0x74, 0x6f, 0x77, 0x7a, 0x67, 0xaf, 0x73, 0xa1, 0x62, 0xa0,
  0x57, 0x7a, 0x7b, 0x75, 0x68, 0x6e, 0x4c, 0x56, 0x6f, 0x6a, 0x80, 0x7e,
  0x7a, 0x7f, 0x82, 0x78, 0x78, 0x57, 0x69, 0x5e, 0x72, 0xa5, 0x7b, 0x9e,
  0x8d, 0x9c, 0x9b, 0x8d, 0xa1, 0x97, 0x96, 0x97, 0x92, 0x85, 0x71, 0x87,
  0x66, 0x71, 0x82, 0x7e, 0x81, 0x7b, 0x7e, 0x6f, 0x5c, 0x51, 0x86, 0x7a,
  0x79, 0x79, 0x7e, 0x8e, 0x98, 0x9e, 0x9e, 0x9b, 0xa7, 0x88, 0x8e, 0x7f,
  0x87, 0x85, 0x74, 0x81, 0x6e, 0x80, 0x7d, 0x82, 0x7a, 0x7d, 0x73, 0x5e,
  0x74, 0x85, 0x8a, 0x60, 0x9b, 0x7b, 0x79, 0x82, 0x73, 0x8d, 0x9e, 0x91,
  0x8d, 0x7e, 0x92, 0x7f, 0x73, 0xa0, 0x74, 0x7d, 0x82, 0x7c, 0x7b, 0x81,
  0x82, 0x76, 0x77, 0x72, 0x6d, 0x7d, 0x81, 0x86, 0x72, 0x8e, 0x82, 0x8e,
  0x92, 0x8b, 0x8c, 0x98, 0x7a, 0x8f, 0x87, 0x7d, 0x93, 0x64, 0x7a, 0x6b,
  0x79, 0x67, 0x69, 0x83, 0x80, 0x7c, 0x6c, 0x78, 0x76, 0x91, 0x98, 0x8c,
  0x76, 0x86, 0x8b, 0x7d, 0x84, 0x62, 0x8b, 0x7a, 0x8d, 0x6f, 0x8d, 0x8d,
  0x88, 0x8d, 0x91, 0x81, 0x65, 0x8e, 0x6b, 0x7b, 0x7c, 0x7c, 0x60, 0x76,
  0x70, 0x87, 0x75, 0x8f, 0xb4, 0x8d, 0xa4, 0x82, 0xa3, 0x89, 0x84, 0x91,
  0x89, 0xae, 0x95, 0x7d, 0xac, 0x85, 0x91, 0x6f, 0x5e, 0x75, 0x73, 0x81,
  0x80, 0x80, 0x5e, 0x66, 0xa7, 0x8c, 0xa8, 0x7d, 0x7f, 0xa0, 0x7e, 0x9d,
  0x61, 0x93, 0x82, 0x9d, 0x8f, 0x95, 0xa1, 0xa3, 0x7d, 0xbd, 0x8d, 0xb4,
  0x61, 0x68, 0x73, 0x7d, 0x83, 0x7d, 0x77, 0x59, 0xb0, 0x93, 0x79, 0xa3,
  0x93, 0x7c, 0x8b, 0x6e, 0x85, 0x7c, 0x9d, 0x99, 0x9d, 0x95, 0x8e, 0xa9,
  0x92, 0x8c, 0x9e, 0x88, 0x57, 0x60, 0x73, 0x83, 0x80, 0x7e, 0x7b, 0x7b,
  0xa5, 0x7a, 0x98, 0x83, 0x78, 0x97, 0x85, 0x86, 0x7d, 0x8a, 0x87, 0x88,
  0x8e, 0xa1, 0x84, 0x8a, 0x91, 0x77, 0x8a, 0x4b, 0x46, 0x73, 0x7e, 0x84,
  0x7f, 0x85, 0x79, 0x8f, 0x81, 0x85, 0x8e, 0x7d, 0x9c, 0x6c, 0x88, 0x97,
  0x6c, 0x8d, 0x68, 0xa1, 0x84, 0x9c, 0x82, 0x8b, 0x91, 0x78, 0x78, 0x65,
  0x34, 0x69, 0x7e, 0x84, 0x7d, 0x85, 0x76, 0x7e, 0x81, 0x91, 0x82, 0x7f,
  0x99, 0x7d, 0x87, 0x7c, 0x71, 0x7e, 0x79, 0x71, 0x98, 0x8c, 0x91, 0x88,
  0x83, 0x6f, 0x96, 0x6f, 0x45, 0x6b, 0x80, 0x83, 0x7f, 0x80, 0x7b, 0x83,
  0x60, 0x7f, 0x56, 0x88, 0x8e, 0x74, 0x96, 0x76, 0x8b, 0x91, 0x6c, 0x97,
  0x73, 0x88, 0x83, 0x72, 0x79, 0x6a, 0x6c, 0x5e, 0x49, 0x77, 0x80, 0x80,
  0x84, 0x80, 0x7f, 0x75, 0x56, 0x6c, 0x9b, 0x84, 0x70, 0x84, 0x8f, 0x91,
  0x51, 0x78, 0x97, 0x81, 0x8e, 0x84, 0x82, 0x6e, 0x88, 0x8b, 0x79, 0x4d,
  0x4e, 0x6d, 0x79, 0x82, 0x82, 0x80, 0x7a, 0x6a, 0x65, 0x6d, 0x9d, 0x8e,
  0x89, 0x62, 0x7f, 0x6c, 0x95, 0x74, 0x72, 0x76, 0x82, 0x71, 0x8c, 0x90,
  0x7b, 0x6f, 0x60, 0x76, 0x66, 0x70, 0x80, 0x82, 0x7f, 0x80, 0x7f, 0x65,
  0x79, 0x8e, 0x79, 0x51, 0x7a, 0x63, 0x64, 0x56, 0x49, 0x7f, 0x80, 0x75,
  0x7b, 0x82, 0x67, 0x89, 0x6a, 0x61, 0x5d, 0x8e, 0xa1, 0x8e, 0x7d, 0x84,
  0x7e, 0x7e, 0x7b, 0x79, 0x79, 0x79, 0x8c, 0x81, 0x72, 0x8e, 0x7f, 0x73,
  0x75, 0x68, 0x66, 0x73, 0x7d, 0x61, 0x66, 0x77, 0x6c, 0x9b, 0x49, 0x78,
  0xa5, 0x7d, 0x7c, 0x7a, 0x84, 0x80, 0x7c, 0x84, 0x7b, 0x50, 0x71, 0x79,
  0x8a, 0x68, 0x93, 0x81, 0x8a, 0x73, 0x8f, 0x61, 0x8b, 0x75, 0x69, 0x51,
  0x69, 0x70, 0x80, 0x9a, 0xa9, 0x8f, 0x7c, 0x7a, 0x7b, 0x7b, 0x79, 0x7c,
  0x6a, 0x72, 0x65, 0x69, 0x99, 0x6f, 0x88, 0x7f, 0x82, 0x73, 0x91, 0x70,
  0x6f, 0x84, 0x76, 0x89, 0x93, 0x7a, 0xb2, 0x93, 0x97, 0x7c, 0x81, 0x81,
  0x83, 0x80, 0x7e, 0x78, 0x85, 0x96, 0x92, 0x8b, 0x7f, 0x75, 0x7f, 0x84,
  0x68, 0x7a, 0x5b, 0x88, 0x89, 0x7a, 0x79, 0x8e, 0x9e, 0x7a, 0xb2, 0xab,
  0x71, 0x7d, 0x7a, 0x7a, 0x7c, 0x7f, 0x7d, 0x79, 0x7e, 0xab, 0x8f, 0x8e,
  0xa1, 0x80, 0xa7, 0x89, 0x8d, 0x84, 0x9e, 0x7b, 0x8e, 0x8a, 0x95, 0x83,
  0xb0, 0xac, 0x72, 0x83, 0x70, 0x7e, 0x7a, 0x7f, 0x83, 0x85, 0x81, 0x80,
  0x86, 0x99, 0xaa, 0x9f, 0xb4, 0xc7, 0xa3, 0x90, 0xa6, 0x9d, 0xbc, 0xa7,
  0xa2, 0xae, 0xb9, 0x91, 0x98, 0x8f, 0x72, 0x81, 0x7e, 0x84, 0x7d, 0x86,
  0x7f, 0x80, 0x7f, 0x83, 0x80, 0x7d, 0x7b, 0x86, 0x84, 0x88, 0x6b, 0x80,
  0x95, 0x5b, 0x80, 0x83, 0x81, 0x76, 0x85, 0x6e, 0x73, 0x79, 0x7b, 0x79,
  0x7b, 0x81, 0x82, 0x81, 0xea, 0xfc, 0xff, 0xff, 0x04, 0x00, 0x00, 0x00,
  0x28, 0x00, 0x00, 0x00, 0xfe, 0xff, 0xff, 0xff, 0x02, 0x00, 0x00, 0x00,
  0x04, 0x00, 0x00, 0x00, 0xfe, 0xff, 0xff, 0xff, 0x01, 0x00, 0x00, 0x00,
  0x10, 0x00, 0x00, 0x00, 0x00, 0x00, 0x00, 0x00, 0x05, 0x00, 0x00, 0x00,
  0xec, 0xff, 0xff, 0xff, 0xfc, 0xff, 0xff, 0xff, 0xc8, 0xfc, 0xff, 0xff,
  0x28, 0xfe, 0xff, 0xff, 0x20, 0x00, 0x00, 0x00, 0x14, 0x00, 0x00, 0x00,
  0x08, 0x00, 0x00, 0x00, 0x7c, 0x02, 0x00, 0x00, 0x01, 0x00, 0x00, 0x00,
  0x03, 0x00, 0x00, 0x00, 0x01, 0x00, 0x00, 0x00, 0x02, 0x00, 0x00, 0x00,
  0x05, 0x00, 0x00, 0x00, 0x08, 0x02, 0x00, 0x00, 0xec, 0x00, 0x00, 0x00,
  0x0c, 0x00, 0x00, 0x00, 0x70, 0x00, 0x00, 0x00, 0x48, 0x01, 0x00, 0x00,
  0x1a, 0xfe, 0xff, 0xff, 0x00, 0x00, 0x00, 0x03, 0x1c, 0x00, 0x00, 0x00,
  0x05, 0x00, 0x00, 0x00, 0x08, 0x00, 0x00, 0x00, 0x1c, 0x00, 0x00, 0x00,
  0x05, 0x00, 0x00, 0x00, 0x69, 0x6e, 0x70, 0x75, 0x74, 0x00, 0x00, 0x00,
  0x02, 0x00, 0x00, 0x00, 0x01, 0x00, 0x00, 0x00, 0x10, 0x03, 0x00, 0x00,
  0x94, 0xfe, 0xff, 0xff, 0x2c, 0x00, 0x00, 0x00, 0x20, 0x00, 0x00, 0x00,
  0x14, 0x00, 0x00, 0x00, 0x04, 0x00, 0x00, 0x00, 0x01, 0x00, 0x00, 0x00,
  0x00, 0x00, 0x00, 0x00, 0x00, 0x00, 0x00, 0x00, 0x01, 0x00, 0x00, 0x00,
  0x00, 0x00, 0x80, 0x3f, 0x01, 0x00, 0x00, 0x00, 0x00, 0x00, 0x7f, 0x43,
  0x01, 0x00, 0x00, 0x00, 0x00, 0x00, 0x00, 0x00, 0x82, 0xfe, 0xff, 0xff,
  0x00, 0x00, 0x00, 0x03, 0x24, 0x00, 0x00, 0x00, 0x04, 0x00, 0x00, 0x00,
  0x08, 0x00, 0x00, 0x00, 0x24, 0x00, 0x00, 0x00, 0x0e, 0x00, 0x00, 0x00,
  0x6c, 0x61, 0x62, 0x65, 0x6c, 0x73, 0x5f, 0x73, 0x6f, 0x66, 0x74, 0x6d,
  0x61, 0x78, 0x00, 0x00, 0x02, 0x00, 0x00, 0x00, 0x01, 0x00, 0x00, 0x00,
  0x0a, 0x00, 0x00, 0x00, 0x04, 0xff, 0xff, 0xff, 0x30, 0x00, 0x00, 0x00,
  0x24, 0x00, 0x00, 0x00, 0x18, 0x00, 0x00, 0x00, 0x04, 0x00, 0x00, 0x00,
  0x01, 0x00, 0x00, 0x00, 0x00, 0x00, 0x00, 0x00, 0x00, 0x00, 0x00, 0x00,
  0x00, 0x00, 0x00, 0x00, 0x01, 0x00, 0x00, 0x00, 0x00, 0x00, 0x80, 0x3b,
  0x01, 0x00, 0x00, 0x00, 0x00, 0x00, 0x7f, 0x3f, 0x01, 0x00, 0x00, 0x00,
  0x00, 0x00, 0x00, 0x00, 0xf6, 0xfe, 0xff, 0xff, 0x00, 0x00, 0x00, 0x03,
  0x18, 0x00, 0x00, 0x00, 0x03, 0x00, 0x00, 0x00, 0x08, 0x00, 0x00, 0x00,
  0x18, 0x00, 0x00, 0x00, 0x03, 0x00, 0x00, 0x00, 0x61, 0x64, 0x64, 0x00,
  0x02, 0x00, 0x00, 0x00, 0x01, 0x00, 0x00, 0x00, 0x0a, 0x00, 0x00, 0x00,
  0x6c, 0xff, 0xff, 0xff, 0x30, 0x00, 0x00, 0x00, 0x24, 0x00, 0x00, 0x00,
  0x18, 0x00, 0x00, 0x00, 0x04, 0x00, 0x00, 0x00, 0x01, 0x00, 0x00, 0x00,
  0x51, 0x00, 0x00, 0x00, 0x00, 0x00, 0x00, 0x00, 0x00, 0x00, 0x00, 0x00,
  0x01, 0x00, 0x00, 0x00, 0xb0, 0xe9, 0x37, 0x3f, 0x01, 0x00, 0x00, 0x00,
  0xab, 0x01, 0xfa, 0x42, 0x01, 0x00, 0x00, 0x00, 0xc2, 0xc3, 0x68, 0xc2,
  0x5e, 0xff, 0xff, 0xff, 0x00, 0x00, 0x00, 0x03, 0x44, 0x00, 0x00, 0x00,
  0x02, 0x00, 0x00, 0x00, 0x08, 0x00, 0x00, 0x00, 0x50, 0x00, 0x00, 0x00,
  0x2f, 0x00, 0x00, 0x00, 0x77, 0x65, 0x69, 0x67, 0x68, 0x74, 0x73, 0x5f,
  0x71, 0x75, 0x61, 0x6e, 0x74, 0x2f, 0x46, 0x61, 0x6b, 0x65, 0x51, 0x75,
  0x61, 0x6e, 0x74, 0x57, 0x69, 0x74, 0x68, 0x4d, 0x69, 0x6e, 0x4d, 0x61,
  0x78, 0x56, 0x61, 0x72, 0x73, 0x2f, 0x74, 0x72, 0x61, 0x6e, 0x73, 0x70,
  0x6f, 0x73, 0x65, 0x00, 0x02, 0x00, 0x00, 0x00, 0x0a, 0x00, 0x00, 0x00,
  0x10, 0x03, 0x00, 0x00, 0x0c, 0x00, 0x14, 0x00, 0x04, 0x00, 0x08, 0x00,
  0x0c, 0x00, 0x10, 0x00, 0x0c, 0x00, 0x00, 0x00, 0x30, 0x00, 0x00, 0x00,
  0x24, 0x00, 0x00, 0x00, 0x18, 0x00, 0x00, 0x00, 0x04, 0x00, 0x00, 0x00,
  0x01, 0x00, 0x00, 0x00, 0x80, 0x00, 0x00, 0x00, 0x00, 0x00, 0x00, 0x00,
  0x00, 0x00, 0x00, 0x00, 0x01, 0x00, 0x00, 0x00, 0x75, 0x0c, 0x9e, 0x39,
  0x01, 0x00, 0x00, 0x00, 0xd6, 0xfa, 0x1c, 0x3d, 0x01, 0x00, 0x00, 0x00,
  0xe2, 0xa5, 0x1c, 0xbd, 0x00, 0x00, 0x0e, 0x00, 0x18, 0x00, 0x08, 0x00,
  0x07, 0x00, 0x0c, 0x00, 0x10, 0x00, 0x14, 0x00, 0x0e, 0x00, 0x00, 0x00,
  0x00, 0x00, 0x00, 0x02, 0x20, 0x00, 0x00, 0x00, 0x01, 0x00, 0x00, 0x00,
  0x08, 0x00, 0x00, 0x00, 0x28, 0x00, 0x00, 0x00, 0x0b, 0x00, 0x00, 0x00,
  0x4d, 0x61, 0x74, 0x4d, 0x75, 0x6c, 0x5f, 0x62, 0x69, 0x61, 0x73, 0x00,
  0x01, 0x00, 0x00, 0x00, 0x0a, 0x00, 0x00, 0x00, 0x0c, 0x00, 0x0c, 0x00,
  0x00, 0x00, 0x00, 0x00, 0x04, 0x00, 0x08, 0x00, 0x0c, 0x00, 0x00, 0x00,
  0x14, 0x00, 0x00, 0x00, 0x04, 0x00, 0x00, 0x00, 0x01, 0x00, 0x00, 0x00,
  0x00, 0x00, 0x00, 0x00, 0x00, 0x00, 0x00, 0x00, 0x01, 0x00, 0x00, 0x00,
  0x75, 0x0c, 0x9e, 0x39, 0x02, 0x00, 0x00, 0x00, 0x70, 0x00, 0x00, 0x00,
  0x18, 0x00, 0x00, 0x00, 0x14, 0x00, 0x1c, 0x00, 0x08, 0x00, 0x0c, 0x00,
  0x10, 0x00, 0x07, 0x00, 0x14, 0x00, 0x00, 0x00, 0x00, 0x00, 0x18, 0x00,
  0x14, 0x00, 0x00, 0x00, 0x00, 0x00, 0x00, 0x09, 0x01, 0x00, 0x00, 0x00,
  0x1c, 0x00, 0x00, 0x00, 0x10, 0x00, 0x00, 0x00, 0x24, 0x00, 0x00, 0x00,
  0x04, 0x00, 0x00, 0x00, 0x00, 0x00, 0x00, 0x00, 0x01, 0x00, 0x00, 0x00,
  0x03, 0x00, 0x00, 0x00, 0x01, 0x00, 0x00, 0x00, 0x01, 0x00, 0x00, 0x00,
  0x00, 0x00, 0x06, 0x00, 0x08, 0x00, 0x04, 0x00, 0x06, 0x00, 0x00, 0x00,
  0x00, 0x00, 0x80, 0x3f, 0x14, 0x00, 0x18, 0x00, 0x00, 0x00, 0x08, 0x00,
  0x0c, 0x00, 0x07, 0x00, 0x10, 0x00, 0x00, 0x00, 0x00, 0x00, 0x14, 0x00,
  0x14, 0x00, 0x00, 0x00, 0x00, 0x00, 0x00, 0x08, 0x1c, 0x00, 0x00, 0x00,
  0x10, 0x00, 0x00, 0x00, 0x28, 0x00, 0x00, 0x00, 0x04, 0x00, 0x00, 0x00,
  0x00, 0x00, 0x00, 0x00, 0x01, 0x00, 0x00, 0x00, 0x01, 0x00, 0x00, 0x00,
  0x03, 0x00, 0x00, 0x00, 0x02, 0x00, 0x00, 0x00, 0x04, 0x00, 0x00, 0x00,
  0x00, 0x00, 0x00, 0x00, 0x04, 0x00, 0x04, 0x00, 0x04, 0x00, 0x00, 0x00,
  0x02, 0x00, 0x00, 0x00, 0x1c, 0x00, 0x00, 0x00, 0x0c, 0x00, 0x00, 0x00,
  0x00, 0x00, 0x06, 0x00, 0x06, 0x00, 0x05, 0x00, 0x06, 0x00, 0x00, 0x00,
  0x00, 0x19, 0x06, 0x00, 0x08, 0x00, 0x07, 0x00, 0x06, 0x00, 0x00, 0x00,
  0x00, 0x00, 0x00, 0x09
};
unsigned int fc_tflite_len = 8896;

unsigned char micro_conv_tflite[] = {
  0x18, 0x00, 0x00, 0x00, 0x54, 0x46, 0x4c, 0x33, 0x00, 0x00, 0x0e, 0x00,
  0x18, 0x00, 0x04, 0x00, 0x08, 0x00, 0x0c, 0x00, 0x10, 0x00, 0x14, 0x00,
  0x0e, 0x00, 0x00, 0x00, 0x03, 0x00, 0x00, 0x00, 0xfc, 0x1d, 0x00, 0x00,
  0x0c, 0x00, 0x00, 0x00, 0x10, 0x00, 0x00, 0x00, 0x20, 0x00, 0x00, 0x00,
  0x01, 0x00, 0x00, 0x00, 0xf4, 0x17, 0x00, 0x00, 0x0f, 0x00, 0x00, 0x00,
  0x54, 0x4f, 0x43, 0x4f, 0x20, 0x43, 0x6f, 0x6e, 0x76, 0x65, 0x72, 0x74,
  0x65, 0x64, 0x2e, 0x00, 0x0b, 0x00, 0x00, 0x00, 0xd4, 0x17, 0x00, 0x00,
  0xcc, 0x00, 0x00, 0x00, 0xa0, 0x00, 0x00, 0x00, 0x84, 0x00, 0x00, 0x00,
  0x7c, 0x00, 0x00, 0x00, 0x74, 0x00, 0x00, 0x00, 0x6c, 0x00, 0x00, 0x00,
  0x64, 0x00, 0x00, 0x00, 0x5c, 0x00, 0x00, 0x00, 0x24, 0x00, 0x00, 0x00,
  0x04, 0x00, 0x00, 0x00, 0x82, 0xe2, 0xff, 0xff, 0x04, 0x00, 0x00, 0x00,
  0x10, 0x00, 0x00, 0x00, 0xff, 0xff, 0xff, 0xff, 0x1c, 0x00, 0x00, 0x00,
  0x1c, 0x00, 0x00, 0x00, 0x01, 0x00, 0x00, 0x00, 0x9e, 0xe2, 0xff, 0xff,
  0x04, 0x00, 0x00, 0x00, 0x28, 0x00, 0x00, 0x00, 0xc2, 0xff, 0xff, 0xff,
  0x54, 0x00, 0x00, 0x00, 0xff, 0xff, 0xff, 0xff, 0xf8, 0xff, 0xff, 0xff,
  0x04, 0x00, 0x00, 0x00, 0x8e, 0x00, 0x00, 0x00, 0xec, 0xff, 0xff, 0xff,
  0x31, 0x00, 0x00, 0x00, 0x4b, 0xff, 0xff, 0xff, 0xf0, 0xff, 0xff, 0xff,
  0x88, 0xe3, 0xff, 0xff, 0x8c, 0xe3, 0xff, 0xff, 0x90, 0xe3, 0xff, 0xff,
  0x94, 0xe3, 0xff, 0xff, 0x98, 0xe3, 0xff, 0xff, 0xe6, 0xe2, 0xff, 0xff,
  0x04, 0x00, 0x00, 0x00, 0x0c, 0x00, 0x00, 0x00, 0xfd, 0xff, 0xff, 0xff,
  0x00, 0x00, 0x00, 0x00, 0xff, 0xff, 0xff, 0xff, 0xfe, 0xe2, 0xff, 0xff,
  0x04, 0x00, 0x00, 0x00, 0x1b, 0x00, 0x00, 0x00, 0x01, 0x81, 0xa7, 0x80,
  0xa5, 0xab, 0xf9, 0xa5, 0x65, 0x2b, 0xd7, 0xe6, 0xe9, 0xdf, 0xed, 0xff,
  0xd6, 0xae, 0x07, 0xd7, 0xd0, 0xa7, 0xdb, 0xd2, 0xf2, 0xde, 0xb9, 0x00,
  0x26, 0xe3, 0xff, 0xff, 0x04, 0x00, 0x00, 0x00, 0xf8, 0x16, 0x00, 0x00,
  0x7a, 0x91, 0x76, 0x6f, 0x97, 0x54, 0x7b, 0x86, 0x77, 0x87, 0x99, 0x69,
  0x68, 0xa3, 0x78, 0x7f, 0x7f, 0x72, 0xa2, 0x81, 0x80, 0x65, 0x63, 0x9e,
  0x6e, 0x83, 0x6d, 0x7c, 0x80, 0x6b, 0x8f, 0x70, 0x8b, 0x85, 0x79, 0x83,
  0x6a, 0x66, 0x7f, 0x8b, 0x9e, 0xab, 0x68, 0x84, 0xa5, 0x75, 0xa4, 0x86,
  0x85, 0x7f, 0x65, 0x93, 0x9b, 0x6b, 0x73, 0x61, 0x77, 0x5c, 0x74, 0x7a,
  0x92, 0x95, 0x83, 0x6c, 0x8b, 0x79, 0xa1, 0x85, 0x8c, 0x8b, 0x7c, 0x7c,
  0x9f, 0x84, 0x88, 0x62, 0x7e, 0x76, 0x74, 0x84, 0x6a, 0x85, 0x62, 0x6d,
  0x7e, 0x88, 0xa5, 0x6f, 0x8b, 0x74, 0x65, 0x79, 0xa2, 0x7a, 0x78, 0x6b,
  0x78, 0x88, 0x82, 0x78, 0x8b, 0x7f, 0x8c, 0x8c, 0x8a, 0xa2, 0x88, 0x95,
  0x99, 0x86, 0x8c, 0x81, 0x79, 0x9b, 0x81, 0x8c, 0x90, 0x85, 0x7b, 0x82,
  0x7e, 0x71, 0x73, 0x60, 0x7c, 0x65, 0x9c, 0xa3, 0x53, 0x69, 0x90, 0x4b,
  0x86, 0x7b, 0x80, 0x72, 0x84, 0x8a, 0x77, 0x84, 0x8a, 0x83, 0x78, 0x86,
  0x84, 0x8b, 0x86, 0x8f, 0x82, 0x8b, 0x89, 0x91, 0x9e, 0x71, 0x95, 0x95,
  0x59, 0x93, 0x9c, 0x86, 0xa4, 0x98, 0x88, 0x56, 0x64, 0x4d, 0x8b, 0x6a,
  0x75, 0x9c, 0x70, 0x8e, 0x6a, 0xb0, 0x68, 0x92, 0x9f, 0x8a, 0x8a, 0x72,
  0x8c, 0x85, 0x91, 0x7f, 0x78, 0x90, 0x99, 0x84, 0x8b, 0x78, 0x85, 0x7b,
  0x8f, 0x82, 0x81, 0x9d, 0x93, 0x93, 0xab, 0x97, 0x9a, 0xad, 0xac, 0x95,
  0x60, 0xa4, 0x78, 0x9a, 0x4c, 0x68, 0x71, 0x9a, 0xa6, 0x72, 0x80, 0x85,
  0x98, 0x92, 0x81, 0x7e, 0x98, 0x73, 0x9b, 0x99, 0x87, 0xa2, 0x80, 0x80,
  0x6a, 0x6b, 0x83, 0x96, 0x5a, 0x50, 0xa5, 0x79, 0x49, 0x98, 0x86, 0x7f,
  0x99, 0x8f, 0x90, 0x79, 0xaa, 0xa4, 0x81, 0xa5, 0x95, 0x5c, 0x81, 0x95,
  0x80, 0xa6, 0xa6, 0x8d, 0x67, 0x93, 0x9d, 0x9f, 0x92, 0x7e, 0x8c, 0x95,
  0x96, 0x93, 0x8a, 0x67, 0x85, 0x8a, 0x7f, 0x51, 0x79, 0x8a, 0x2e, 0x19,
  0xac, 0x5d, 0x39, 0xa9, 0x85, 0x7a, 0xc4, 0x92, 0x8f, 0x99, 0xb5, 0xb1,
  0x96, 0x81, 0x8f, 0x90, 0x89, 0x7d, 0x97, 0xab, 0x90, 0x9f, 0x88, 0x6e,
  0xa7, 0x9f, 0x90, 0x96, 0x8d, 0x98, 0xa2, 0xa0, 0xa3, 0x7b, 0x79, 0x8d,
  0x6e, 0x32, 0x3f, 0x95, 0x3d, 0x1c, 0xa4, 0x81, 0x56, 0xa3, 0x8c, 0x96,
  0xa3, 0x94, 0x8b, 0x7c, 0x9a, 0x9d, 0x65, 0x89, 0xb6, 0x93, 0xaa, 0x6a,
  0x53, 0x98, 0x87, 0x94, 0x5f, 0x81, 0x91, 0xa8, 0x80, 0xa2, 0x94, 0xa2,
  0xae, 0x98, 0x9b, 0x73, 0x7a, 0x8f, 0x75, 0x53, 0x5b, 0x9f, 0x75, 0x5a,
  0x8d, 0x90, 0x91, 0x9e, 0x87, 0x8f, 0xa5, 0x8e, 0x91, 0x92, 0x9e, 0x8a,
  0x88, 0x81, 0x7c, 0x68, 0x78, 0x85, 0xac, 0xad, 0x9e, 0x88, 0x7f, 0x95,
  0x9e, 0x9d, 0x92, 0x9c, 0xb0, 0xa2, 0xa8, 0x8c, 0x94, 0x7d, 0x87, 0x98,
  0x75, 0x89, 0x73, 0x8a, 0x7d, 0x78, 0x90, 0x7e, 0x8e, 0x8a, 0x88, 0x8c,
  0x91, 0x8f, 0x88, 0x81, 0x7f, 0x81, 0x91, 0x92, 0x98, 0x9f, 0x8e, 0x98,
  0x8a, 0x7d, 0x82, 0x75, 0x91, 0x63, 0x91, 0x99, 0x96, 0x86, 0x8a, 0x9d,
  0xa4, 0x95, 0x92, 0x8d, 0x93, 0x97, 0x76, 0x85, 0x9f, 0x60, 0x84, 0x9b,
  0x6b, 0x7e, 0x8f, 0x61, 0x8f, 0x7c, 0x70, 0x81, 0x76, 0x9d, 0x73, 0xa3,
  0x93, 0x89, 0xac, 0x81, 0xa1, 0x74, 0x91, 0x91, 0x84, 0x80, 0x7e, 0x88,
  0x8b, 0x6a, 0x63, 0x85, 0x7f, 0x7b, 0x84, 0x8d, 0x89, 0xa0, 0xa2, 0x94,
  0x66, 0x96, 0xa8, 0x56, 0x9a, 0x91, 0x6f, 0x72, 0x7d, 0x44, 0x6e, 0x5e,
  0x60, 0x52, 0x78, 0x94, 0x6c, 0x63, 0x70, 0x89, 0x99, 0x80, 0x82, 0x7f,
  0x75, 0x95, 0x77, 0x86, 0x89, 0x7e, 0xa2, 0x80, 0xa0, 0x6e, 0x7e, 0x71,
  0x64, 0x62, 0x98, 0x68, 0x5f, 0x67, 0x65, 0x50, 0x92, 0x61, 0x8a, 0x86,
  0x73, 0x4b, 0x71, 0x86, 0x5b, 0x86, 0x6f, 0x8f, 0xab, 0xaf, 0x88, 0xa4,
  0x8d, 0x74, 0x79, 0xb4, 0x61, 0x94, 0x89, 0x92, 0x50, 0xa0, 0xaf, 0x52,
  0x8c, 0xa8, 0x5d, 0x7d, 0x5e, 0xa3, 0x98, 0xa6, 0x81, 0x66, 0x73, 0x8f,
  0x74, 0x94, 0x9a, 0x87, 0xb2, 0x9d, 0x63, 0x86, 0x6e, 0xad, 0x7b, 0x57,
  0x7d, 0x5f, 0xa9, 0x63, 0x73, 0x86, 0x5a, 0x59, 0x4e, 0x85, 0xb8, 0x6a,
  0x82, 0x7d, 0x6d, 0xa9, 0x93, 0x76, 0x5e, 0x82, 0x8d, 0x8a, 0x79, 0xa2,
  0x81, 0x96, 0x6b, 0x71, 0x6b, 0x79, 0xa7, 0x8c, 0x8a, 0x97, 0x9f, 0x80,
  0x6b, 0x7e, 0x73, 0x97, 0x5f, 0x96, 0x4f, 0x71, 0x8a, 0xbd, 0x6d, 0x7f,
  0x6d, 0x86, 0x76, 0x74, 0x87, 0x9a, 0x8f, 0x67, 0x97, 0x8e, 0xa2, 0x71,
  0x81, 0x99, 0x71, 0xab, 0x9a, 0x92, 0x56, 0x7d, 0x79, 0xb3, 0x89, 0x6e,
  0x9e, 0xad, 0x90, 0x7b, 0x9b, 0x7e, 0xb1, 0x7b, 0x93, 0xa0, 0x85, 0x7a,
  0xa5, 0xa0, 0x9c, 0x91, 0x96, 0xa7, 0xb6, 0x6e, 0x8c, 0x80, 0xb3, 0x85,
  0x7e, 0x6f, 0x81, 0x69, 0xb5, 0x9c, 0x5b, 0x77, 0x5a, 0x95, 0x7f, 0xa1,
  0x86, 0x63, 0x65, 0x9e, 0x87, 0x7e, 0x9f, 0x86, 0x82, 0xb3, 0x78, 0x88,
  0xdf, 0x74, 0x71, 0xd1, 0x71, 0x8e, 0xa5, 0x97, 0x9f, 0x72, 0x9a, 0x86,
  0x77, 0x75, 0x6e, 0x71, 0x9a, 0x80, 0x71, 0x95, 0x71, 0x8f, 0x76, 0x7c,
  0x93, 0x66, 0x4d, 0x57, 0x5c, 0x65, 0x70, 0x54, 0x75, 0x7c, 0x67, 0x5d,
  0x85, 0x84, 0x81, 0xa7, 0x79, 0x83, 0xb2, 0x7d, 0x82, 0x89, 0x85, 0x79,
  0x97, 0x80, 0x93, 0x8d, 0x62, 0x88, 0x82, 0x76, 0x61, 0x96, 0x78, 0x8b,
  0x70, 0x56, 0x6e, 0x71, 0x5a, 0x7d, 0x5f, 0x88, 0xa4, 0x6d, 0x85, 0xa9,
  0x63, 0x4f, 0x95, 0x73, 0x6f, 0x77, 0x9a, 0x91, 0x8d, 0x9f, 0x9e, 0xa6,
  0x75, 0x81, 0x86, 0x38, 0x78, 0x75, 0x6f, 0x49, 0x60, 0x6d, 0x74, 0x69,
  0x79, 0x6c, 0x62, 0x65, 0xa4, 0x7d, 0xa9, 0x99, 0x93, 0xa0, 0x78, 0x5c,
  0x8c, 0x86, 0x92, 0x62, 0x62, 0x74, 0x74, 0x69, 0x86, 0x87, 0x65, 0x4d,
  0xa9, 0x90, 0x90, 0x92, 0xa4, 0xb9, 0x2c, 0x95, 0x8c, 0x63, 0x54, 0x6b,
  0x78, 0x61, 0x5e, 0x78, 0x4a, 0x47, 0x65, 0x8a, 0x9a, 0x83, 0x97, 0x76,
  0x95, 0x63, 0xbb, 0x69, 0x54, 0xa3, 0x76, 0x79, 0x94, 0x90, 0x5f, 0x74,
  0x66, 0x4b, 0x69, 0x8f, 0x68, 0x2d, 0xc0, 0x99, 0x9e, 0x75, 0xa3, 0xb2,
  0x94, 0x6b, 0x89, 0xb8, 0x43, 0x40, 0x7b, 0x6a, 0x97, 0x9c, 0x68, 0x9d,
  0x55, 0x69, 0x53, 0x81, 0x5c, 0x60, 0x80, 0x7e, 0x7d, 0x7e, 0x81, 0xa5,
  0x81, 0x65, 0x67, 0x79, 0x62, 0xa2, 0x57, 0x58, 0x5b, 0xa5, 0x83, 0x6a,
  0xb5, 0xa4, 0xa0, 0x67, 0x8d, 0xb0, 0x5b, 0x45, 0x63, 0x81, 0x22, 0x58,
  0x83, 0x4b, 0x77, 0x55, 0x94, 0x6b, 0x8e, 0x82, 0x7e, 0x9a, 0x76, 0x81,
  0x92, 0xa0, 0x5b, 0x76, 0x7d, 0x7e, 0x6e, 0x67, 0x4a, 0x77, 0x37, 0x71,
  0x8e, 0x85, 0x74, 0x9b, 0x90, 0x8c, 0xb2, 0x93, 0xa8, 0x59, 0x86, 0x99,
  0x72, 0x62, 0x78, 0xa0, 0x5c, 0x4f, 0x93, 0x73, 0x51, 0x6c, 0x53, 0x73,
  0x72, 0x81, 0x5b, 0x65, 0x4d, 0x9e, 0x6f, 0x8c, 0xb2, 0x6d, 0x90, 0xa6,
  0x75, 0x59, 0x86, 0x91, 0xa2, 0x68, 0x8a, 0x89, 0x82, 0xa3, 0x89, 0x8d,
  0xa9, 0x8d, 0x7e, 0x56, 0x76, 0x79, 0x64, 0x7e, 0x8a, 0x89, 0x98, 0x83,
  0x73, 0x62, 0x8e, 0x89, 0x64, 0x91, 0x74, 0x85, 0xa8, 0x95, 0x96, 0xa1,
  0x97, 0x74, 0x8b, 0x80, 0x92, 0x6e, 0xaf, 0xc4, 0x9e, 0x81, 0x9b, 0x90,
  0x8f, 0x92, 0x87, 0x8b, 0x7d, 0x7d, 0xaf, 0x6c, 0x82, 0x79, 0x7c, 0x8e,
  0x86, 0x95, 0x9c, 0x5b, 0x96, 0x8c, 0x76, 0x76, 0x70, 0x9d, 0x88, 0x9d,
  0x6e, 0xa3, 0x87, 0x72, 0x79, 0x98, 0x86, 0x7f, 0xa7, 0x85, 0x6d, 0x93,
  0x99, 0x96, 0x93, 0x86, 0x8f, 0x7e, 0x91, 0x77, 0x81, 0xa5, 0x7b, 0x7a,
  0xaf, 0x73, 0x7a, 0x9a, 0x98, 0x7b, 0xa3, 0x87, 0xa6, 0x5a, 0xac, 0x72,
  0x7f, 0x88, 0x8a, 0x97, 0x56, 0x62, 0x7e, 0x81, 0x5b, 0xa8, 0xa5, 0x67,
  0x79, 0x6e, 0x81, 0x84, 0xa9, 0x64, 0x76, 0xa8, 0x80, 0x72, 0x60, 0x80,
  0x66, 0x41, 0x66, 0x83, 0x52, 0x6e, 0x7c, 0x5e, 0x4d, 0x77, 0x6c, 0x91,
  0x89, 0x79, 0x7a, 0x62, 0xa3, 0x7d, 0xb4, 0x88, 0x80, 0x85, 0x75, 0x95,
  0x9c, 0x56, 0x74, 0x85, 0x72, 0x93, 0x9a, 0x78, 0x96, 0x98, 0x9f, 0x91,
  0x6e, 0x6f, 0x99, 0x88, 0x9e, 0x8c, 0x8b, 0x8f, 0x76, 0x84, 0x88, 0xae,
  0x9b, 0x6c, 0xab, 0x86, 0x80, 0xae, 0xb2, 0x75, 0x70, 0x89, 0x9c, 0x6e,
  0x95, 0x60, 0x7e, 0x96, 0x83, 0x97, 0x7c, 0x7e, 0xad, 0x77, 0xa7, 0x83,
  0x84, 0x88, 0x59, 0xb1, 0x77, 0x90, 0x92, 0x7d, 0x80, 0xa0, 0xa0, 0x78,
  0x80, 0x98, 0x6f, 0x9b, 0x74, 0x9a, 0x88, 0x90, 0xac, 0x75, 0x80, 0x72,
  0x82, 0x8d, 0xaf, 0x90, 0x62, 0x9f, 0xa1, 0x66, 0x7a, 0x67, 0x94, 0xa5,
  0x79, 0x64, 0x97, 0xa2, 0x76, 0x71, 0x7a, 0x63, 0x90, 0x99, 0x8c, 0x93,
  0x50, 0x7e, 0xad, 0x84, 0xa9, 0xa6, 0x7f, 0xb4, 0xab, 0x9a, 0xae, 0xab,
  0x81, 0xbe, 0xa2, 0x72, 0xaa, 0xa4, 0x98, 0x9c, 0xb0, 0x45, 0x8b, 0x82,
  0x6c, 0x81, 0x91, 0x8a, 0x60, 0x76, 0x84, 0x8d, 0x71, 0x90, 0xa3, 0x7b,
  0xaa, 0x87, 0x76, 0x95, 0x71, 0xae, 0x96, 0x8c, 0xa6, 0x8f, 0xa9, 0x9b,
  0x8d, 0x9a, 0xa9, 0x80, 0x97, 0x93, 0x79, 0x95, 0x97, 0x7c, 0x8c, 0x9d,
  0x61, 0x86, 0x8c, 0x79, 0x75, 0x98, 0x7d, 0x80, 0x89, 0x7d, 0x52, 0x6d,
  0x56, 0x99, 0x4c, 0x91, 0xb4, 0x6e, 0x88, 0x7a, 0x77, 0xa5, 0x68, 0xa6,
  0x93, 0x9e, 0x92, 0x89, 0x95, 0xa0, 0x72, 0x8d, 0x99, 0x72, 0x7d, 0x96,
  0x6f, 0x8c, 0x8e, 0x81, 0x7d, 0x89, 0x83, 0x82, 0x8a, 0x8e, 0x84, 0x84,
  0x94, 0x86, 0x8e, 0x84, 0x82, 0x7f, 0x95, 0x5b, 0x70, 0x9f, 0xa1, 0x9e,
  0x8e, 0x73, 0x66, 0x8a, 0x6d, 0x74, 0x84, 0xa9, 0x93, 0x7e, 0x82, 0x79,
  0x7a, 0x7f, 0x8a, 0x48, 0x70, 0x8a, 0x79, 0x78, 0x79, 0x91, 0x82, 0x7e,
  0xaf, 0x7a, 0x7a, 0xb8, 0x84, 0x86, 0xa3, 0x86, 0x83, 0x83, 0x71, 0x72,
  0x98, 0x96, 0x69, 0x65, 0x96, 0x9a, 0x8b, 0xab, 0x70, 0x75, 0x75, 0x80,
  0x71, 0x6a, 0x87, 0x4a, 0x5a, 0x35, 0x50, 0x67, 0x48, 0x57, 0x4a, 0x3c,
  0x79, 0x56, 0x4d, 0xa6, 0x7f, 0x72, 0xb0, 0x8a, 0x75, 0xbe, 0x80, 0x81,
  0x80, 0x7d, 0x7b, 0x92, 0x6d, 0x7b, 0x7e, 0x6e, 0xa1, 0x91, 0x80, 0x7c,
  0x63, 0x7a, 0x74, 0x7e, 0x66, 0x6f, 0x47, 0x41, 0x6a, 0x43, 0x58, 0x5a,
  0x52, 0x79, 0x64, 0x62, 0x7f, 0x7a, 0x99, 0x81, 0x90, 0xa7, 0x88, 0x85,
  0xbb, 0x72, 0x7a, 0xc0, 0x81, 0x79, 0x8c, 0x76, 0x77, 0x62, 0x86, 0x7e,
  0xbe, 0xc2, 0x9c, 0x9c, 0x88, 0xa6, 0x86, 0x73, 0x94, 0x86, 0xa8, 0x93,
  0x93, 0x9a, 0x9d, 0x6a, 0x84, 0x8e, 0x78, 0x93, 0x95, 0x8e, 0x8c, 0x96,
  0x92, 0x98, 0x9a, 0x84, 0x83, 0x9a, 0x7f, 0x8d, 0x7e, 0x6f, 0x83, 0x92,
  0x5f, 0x87, 0x7d, 0x77, 0x95, 0x85, 0x78, 0xd4, 0xaf, 0x82, 0xbe, 0xbf,
  0x8e, 0x70, 0x91, 0xa3, 0x9d, 0x95, 0x89, 0xb0, 0xa6, 0x98, 0x92, 0xa2,
  0x9f, 0x92, 0x93, 0x96, 0x93, 0x99, 0x80, 0x8d, 0xa2, 0x6f, 0x8e, 0x93,
  0x43, 0x96, 0xa2, 0x48, 0x89, 0x97, 0x4d, 0x91, 0x96, 0x7e, 0xb0, 0x94,
  0xa1, 0xda, 0xb7, 0x8a, 0x6c, 0x78, 0x92, 0x8d, 0x7d, 0x9e, 0x9f, 0x87,
  0xa2, 0xa3, 0xaa, 0x9c, 0xb6, 0xa9, 0x9e, 0x90, 0x95, 0x9c, 0x89, 0x8f,
  0x77, 0x8a, 0x7a, 0x69, 0x81, 0x81, 0x60, 0x83, 0x9a, 0x66, 0x98, 0xa1,
  0x58, 0x9b, 0x9d, 0x78, 0xb7, 0xb3, 0x9d, 0xcb, 0xc6, 0x75, 0x6d, 0x9a,
  0x87, 0xbc, 0x91, 0xab, 0x8c, 0x65, 0x9c, 0xae, 0x9b, 0x8e, 0x92, 0xa2,
  0x8e, 0x92, 0x91, 0x68, 0x84, 0x89, 0x56, 0x77, 0x89, 0x63, 0x77, 0x8b,
  0x6c, 0x85, 0x93, 0x76, 0xa8, 0x9e, 0x89, 0xa3, 0xa0, 0x93, 0xb9, 0xa9,
  0x9b, 0x84, 0x8c, 0x89, 0xa6, 0x8c, 0x9b, 0x81, 0x77, 0x8b, 0x86, 0x62,
  0x82, 0x75, 0x5a, 0x7c, 0x80, 0x74, 0x6c, 0x7a, 0x68, 0x75, 0x8b, 0x79,
  0x5d, 0x7d, 0x7e, 0x43, 0x8b, 0x71, 0x7a, 0x7d, 0x80, 0x9a, 0x97, 0x8d,
  0x94, 0xa9, 0x85, 0x7a, 0x8c, 0x77, 0x50, 0xac, 0x80, 0x68, 0x7a, 0x88,
  0x89, 0xaa, 0xb3, 0x9a, 0xae, 0x75, 0x7d, 0x76, 0x7b, 0x7b, 0x7e, 0x52,
  0x63, 0x5e, 0x6f, 0x72, 0x7f, 0x6b, 0x9f, 0x63, 0x80, 0x90, 0x73, 0x73,
  0x73, 0x7f, 0x9c, 0x77, 0x7c, 0x7c, 0x4f, 0x96, 0x8f, 0x74, 0x7c, 0x7e,
  0x9c, 0x72, 0xaa, 0x99, 0x83, 0x87, 0x84, 0x8f, 0x67, 0x9c, 0x8f, 0x90,
  0x88, 0x59, 0x8c, 0x7d, 0x69, 0x86, 0x91, 0x93, 0x74, 0x69, 0x83, 0x9f,
  0x7e, 0xb4, 0xb1, 0x73, 0x5d, 0x6b, 0x65, 0x99, 0x96, 0x91, 0xa8, 0x96,
  0xac, 0x52, 0x99, 0x72, 0x76, 0x8c, 0xb2, 0x93, 0x92, 0x96, 0x5f, 0x6b,
  0x66, 0x8e, 0x96, 0x7f, 0x7d, 0x84, 0x85, 0x7a, 0x72, 0xa8, 0x9b, 0x78,
  0x73, 0x90, 0x9a, 0x70, 0x6c, 0x99, 0x87, 0x95, 0x58, 0x74, 0x7e, 0x86,
  0x8c, 0x9d, 0x6b, 0x72, 0x90, 0x85, 0xa4, 0xa8, 0x8f, 0x54, 0x85, 0xb1,
  0x99, 0x51, 0x97, 0xbb, 0xa4, 0x94, 0x99, 0x78, 0x89, 0x67, 0x9a, 0x90,
  0x83, 0xa8, 0x8f, 0x8f, 0xa0, 0x97, 0x84, 0xb0, 0xa3, 0x87, 0xa8, 0xa9,
  0x7c, 0xb6, 0x9d, 0x9a, 0xa3, 0x9f, 0x88, 0x95, 0xa0, 0x88, 0x8b, 0x82,
  0x87, 0x7a, 0x5a, 0x83, 0x6e, 0x73, 0x6e, 0x56, 0xa1, 0x57, 0x76, 0x76,
  0x95, 0xb1, 0x92, 0xb1, 0x8a, 0x72, 0x9c, 0xa8, 0x9b, 0x94, 0xb0, 0xae,
  0x8e, 0x9d, 0xa8, 0x84, 0x97, 0x94, 0x6e, 0x95, 0x92, 0x6e, 0x8a, 0x9c,
  0x72, 0x80, 0x87, 0x40, 0x70, 0x93, 0x6c, 0x7a, 0x81, 0xb7, 0x6c, 0x47,
  0x74, 0x53, 0x8d, 0x93, 0x93, 0x7f, 0x6b, 0x83, 0xab, 0xa8, 0x9a, 0xa9,
  0x91, 0xa1, 0xc1, 0x89, 0x9b, 0xa6, 0x70, 0x8e, 0x9e, 0x64, 0x7d, 0x8f,
  0x57, 0x8b, 0x8e, 0x79, 0x82, 0x93, 0x73, 0x8a, 0x96, 0x8e, 0x8d, 0x8f,
  0x71, 0x8c, 0x96, 0x87, 0x76, 0x74, 0x4d, 0x63, 0x3c, 0x6c, 0x7e, 0xa2,
  0x7c, 0x8c, 0x89, 0xb9, 0x9e, 0xb0, 0x89, 0xaa, 0xab, 0x75, 0x86, 0x76,
  0x5d, 0x69, 0x73, 0x4a, 0x5b, 0x64, 0x8b, 0x80, 0x77, 0x8a, 0x95, 0x95,
  0x9e, 0x8a, 0x8a, 0x97, 0x8f, 0x8f, 0x90, 0x91, 0x95, 0x50, 0x66, 0x67,
  0x8e, 0x7a, 0x6b, 0x54, 0x7c, 0x7f, 0x66, 0x6c, 0x9e, 0x65, 0x7f, 0x95,
  0x66, 0x76, 0x7c, 0x51, 0x5d, 0x60, 0x70, 0x79, 0x64, 0x8b, 0x7a, 0x72,
  0x8e, 0x87, 0x91, 0x8f, 0x96, 0x9e, 0x70, 0x99, 0x89, 0x5f, 0x81, 0x88,
  0x87, 0x60, 0x6d, 0x94, 0x3b, 0x55, 0x7f, 0x96, 0x85, 0xa4, 0xb7, 0x5c,
  0xb4, 0xa5, 0x98, 0x7c, 0x84, 0x51, 0x6e, 0x6a, 0x93, 0x6c, 0x63, 0x5c,
  0x89, 0x86, 0x70, 0x97, 0x88, 0x84, 0xa0, 0x8b, 0x9b, 0x6e, 0x92, 0x94,
  0x4c, 0x7d, 0x88, 0x67, 0x87, 0x86, 0x58, 0x6f, 0x73, 0x68, 0x67, 0x6e,
  0x90, 0x72, 0x81, 0xa6, 0x7b, 0xb9, 0x71, 0x8e, 0x6d, 0xa5, 0x8f, 0x78,
  0x66, 0x80, 0xa5, 0x69, 0x62, 0x6f, 0x82, 0x7e, 0x70, 0x90, 0x7a, 0x76,
  0x6f, 0x8a, 0x86, 0x5e, 0x78, 0x8e, 0x93, 0x8a, 0x80, 0x82, 0x92, 0x9f,
  0x95, 0x91, 0x89, 0x82, 0x92, 0x7d, 0xa6, 0x66, 0x7b, 0x56, 0xa5, 0x74,
  0x8d, 0x8b, 0x8c, 0xa7, 0xac, 0x9a, 0x6e, 0xa1, 0xa7, 0x5a, 0x7a, 0x9a,
  0x4e, 0x68, 0x67, 0x4c, 0x5a, 0x4b, 0x4c, 0x60, 0x5d, 0x85, 0x80, 0x7b,
  0x91, 0x9c, 0xa4, 0xa5, 0x8f, 0x9f, 0xb3, 0x90, 0x97, 0x9a, 0x91, 0x84,
  0x87, 0x57, 0x7b, 0xa9, 0x91, 0x56, 0x86, 0x76, 0x55, 0xa8, 0xc6, 0x9c,
  0x92, 0xa9, 0xad, 0x72, 0xaf, 0xa9, 0x51, 0x7f, 0x8c, 0x39, 0x75, 0x7a,
  0x73, 0x80, 0x64, 0x8f, 0x84, 0x80, 0xaa, 0x87, 0x9b, 0xa7, 0x92, 0x9d,
  0x99, 0x92, 0x8f, 0xa8, 0x7a, 0x8e, 0x6d, 0x9a, 0x6b, 0xac, 0x8e, 0x94,
  0x80, 0x5c, 0x8b, 0xaf, 0xa0, 0x8d, 0x90, 0xad, 0xb9, 0x7a, 0x91, 0xa9,
  0x6d, 0x93, 0x92, 0x4c, 0x8c, 0x8f, 0x7a, 0x81, 0x98, 0x79, 0x84, 0x9c,
  0x92, 0x86, 0x94, 0x86, 0x9a, 0x92, 0x94, 0x82, 0x89, 0x72, 0x86, 0x4d,
  0x71, 0x5d, 0x5f, 0x6c, 0x60, 0xae, 0xc0, 0x7e, 0x90, 0x85, 0xb4, 0xa7,
  0x7e, 0xb1, 0xb2, 0x7c, 0xab, 0xa9, 0x85, 0x9d, 0xa2, 0x80, 0xad, 0xa9,
  0x7a, 0x9d, 0xaf, 0x77, 0xa7, 0x97, 0x6a, 0x8a, 0x87, 0x62, 0x8c, 0x75,
  0x57, 0x78, 0x55, 0x93, 0x6a, 0x82, 0xa9, 0x86, 0x67, 0x68, 0x60, 0xba,
  0x76, 0x7e, 0x68, 0x78, 0x8a, 0x96, 0x96, 0x78, 0x85, 0xac, 0xa9, 0x9c,
  0x94, 0xba, 0x95, 0x96, 0xa1, 0xa5, 0xa2, 0x9f, 0xd3, 0x84, 0x89, 0x6b,
  0xab, 0x8a, 0xab, 0xa0, 0xb2, 0xa3, 0xa7, 0x4d, 0x7b, 0x67, 0x93, 0x62,
  0x60, 0x69, 0x99, 0x69, 0x6f, 0xb4, 0xb6, 0x80, 0x6e, 0xb9, 0x8f, 0x82,
  0x74, 0x83, 0xbb, 0x8a, 0x9a, 0x93, 0x87, 0x5b, 0x6d, 0x6b, 0x7d, 0xa7,
  0x8c, 0x75, 0x5d, 0x75, 0x6a, 0x92, 0x94, 0x69, 0x60, 0x6b, 0x73, 0x68,
  0x7f, 0x7c, 0x71, 0x7b, 0x60, 0x94, 0x95, 0x99, 0x73, 0x6a, 0xa0, 0x6b,
  0x8d, 0x6f, 0x4d, 0x75, 0x9b, 0x72, 0x7b, 0x8b, 0xa1, 0x6e, 0x8f, 0xa6,
  0x9d, 0x75, 0x63, 0x5c, 0x7b, 0x67, 0x7c, 0x6e, 0x8a, 0x6f, 0x57, 0xa6,
  0x87, 0x69, 0x4b, 0x88, 0x66, 0xa3, 0x81, 0x90, 0x59, 0x80, 0x79, 0x99,
  0x8c, 0x9c, 0x74, 0x6d, 0x69, 0x99, 0x58, 0x96, 0x76, 0x8e, 0x66, 0xab,
  0x9c, 0x7c, 0x5c, 0x9e, 0x67, 0x68, 0x5d, 0x5a, 0x70, 0x88, 0x5d, 0x62,
  0x7d, 0x71, 0x42, 0x8c, 0x61, 0x5a, 0x73, 0x6c, 0x7c, 0x8c, 0x7b, 0x80,
  0x81, 0xa5, 0xad, 0x8f, 0x9b, 0x6d, 0x9f, 0x5e, 0x8e, 0xa3, 0xb0, 0x9f,
  0x6e, 0xa9, 0x58, 0x84, 0x8f, 0x85, 0x74, 0x9e, 0x7b, 0x91, 0x9c, 0x93,
  0x99, 0x83, 0x9e, 0x96, 0x7b, 0x71, 0x9d, 0x6b, 0x63, 0xc9, 0x5b, 0x62,
  0xe0, 0x64, 0x61, 0xce, 0x64, 0x83, 0xcd, 0x8a, 0x89, 0x87, 0xaf, 0xb0,
  0x6a, 0xb2, 0xa3, 0x7f, 0x6f, 0x98, 0x99, 0x87, 0x8c, 0x7d, 0x6d, 0x7e,
  0xa4, 0x93, 0xb1, 0x92, 0x8e, 0x94, 0x8b, 0x82, 0x90, 0x95, 0x6b, 0x7a,
  0xaa, 0x6c, 0x6a, 0xd4, 0x55, 0x53, 0xea, 0x70, 0x6e, 0xee, 0x7f, 0x76,
  0xe5, 0x8b, 0x8c, 0x87, 0xa8, 0x9d, 0x99, 0x84, 0x7f, 0xbc, 0x93, 0x69,
  0x9b, 0x9a, 0x9e, 0x81, 0x53, 0x9d, 0x7b, 0x98, 0x7f, 0x98, 0x86, 0x79,
  0x9f, 0x85, 0x97, 0xa7, 0x7a, 0x97, 0xb2, 0x77, 0x80, 0xb0, 0x6e, 0x55,
  0xd0, 0x81, 0x77, 0xde, 0x85, 0x83, 0xb0, 0x89, 0x88, 0x99, 0x8b, 0x78,
  0xa4, 0x97, 0x88, 0x63, 0xae, 0x75, 0x59, 0x7f, 0x8b, 0x8b, 0x6b, 0x5e,
  0x82, 0x99, 0x95, 0x8f, 0xa3, 0x88, 0xad, 0xa7, 0xa1, 0xbb, 0x94, 0x9f,
  0x5c, 0x6e, 0x8e, 0xb3, 0x92, 0x77, 0xaf, 0xa1, 0x9d, 0xab, 0x8a, 0x92,
  0xa6, 0x87, 0x85, 0x4d, 0x6e, 0x73, 0x87, 0x87, 0x63, 0x8e, 0x97, 0x75,
  0x69, 0x97, 0x85, 0x7a, 0x86, 0x7c, 0xa4, 0xac, 0xa9, 0x8c, 0x96, 0xa5,
  0x9c, 0xa0, 0x9a, 0x7d, 0x92, 0x9b, 0x66, 0x82, 0x9d, 0xab, 0x99, 0x94,
  0xa2, 0x8d, 0xa5, 0x9c, 0x9f, 0x9e, 0x7a, 0xa3, 0xa5, 0x9c, 0x97, 0x90,
  0x62, 0x9c, 0x90, 0x89, 0x7f, 0x8d, 0x7e, 0x8e, 0x5d, 0x8c, 0x8e, 0x7c,
  0xa1, 0x9f, 0xa3, 0x90, 0x93, 0xa3, 0x8b, 0x9a, 0xa3, 0x63, 0x87, 0x95,
  0x5d, 0x96, 0x8e, 0x97, 0x8e, 0xa0, 0x8c, 0x9f, 0x99, 0x6d, 0x9e, 0xad,
  0x83, 0x98, 0x94, 0x79, 0x6f, 0x9c, 0xa8, 0x70, 0x92, 0x82, 0x77, 0x6c,
  0x62, 0xa2, 0x99, 0x6a, 0x89, 0xaf, 0x81, 0x88, 0x5e, 0x8b, 0x80, 0x7f,
  0x67, 0x84, 0x83, 0x6f, 0x82, 0x88, 0x89, 0x87, 0x91, 0x91, 0x90, 0x93,
  0x5e, 0x8f, 0x9a, 0x6e, 0x7c, 0x88, 0x9e, 0x76, 0x85, 0x6d, 0x6c, 0x5f,
  0x7d, 0x65, 0x77, 0xa0, 0xae, 0xba, 0x8b, 0x8d, 0xbe, 0x53, 0x4a, 0x98,
  0x7e, 0x5d, 0x6b, 0x6b, 0x61, 0x5b, 0x66, 0x4f, 0x3d, 0x94, 0x6a, 0x51,
  0xa8, 0x7e, 0x5a, 0x97, 0x73, 0x71, 0x8a, 0x69, 0x7b, 0x88, 0x6f, 0x78,
  0x54, 0x65, 0x6d, 0x5b, 0x5c, 0x79, 0x9b, 0x93, 0x5c, 0xa4, 0x66, 0xa2,
  0x5f, 0x70, 0x94, 0x96, 0x7a, 0x70, 0x6e, 0x5a, 0x95, 0x64, 0x35, 0x4f,
  0x7a, 0x71, 0x49, 0x86, 0x78, 0x60, 0xab, 0x67, 0x72, 0x97, 0x6e, 0x82,
  0x9d, 0x71, 0x7e, 0x91, 0x8d, 0x7e, 0x8e, 0x8b, 0x84, 0x81, 0x7d, 0x82,
  0xa6, 0x73, 0x94, 0x72, 0x96, 0x76, 0xb2, 0x89, 0xb4, 0x96, 0x73, 0x73,
  0x7e, 0x7b, 0x74, 0x89, 0x8d, 0x6e, 0x89, 0x81, 0x5c, 0x9c, 0x8a, 0x78,
  0xb0, 0x77, 0x7d, 0xab, 0x88, 0x78, 0xa3, 0x7d, 0x7d, 0xaa, 0x96, 0x94,
  0x75, 0x8f, 0x98, 0x84, 0x69, 0xa7, 0x9e, 0x8c, 0x68, 0x8f, 0x8f, 0x9c,
  0x9b, 0xbb, 0x97, 0x95, 0x6e, 0x65, 0x6b, 0x82, 0x73, 0x5f, 0x4e, 0x69,
  0x87, 0x40, 0x92, 0x78, 0x3e, 0x61, 0x9b, 0x52, 0x6c, 0x8b, 0x52, 0x4d,
  0x78, 0x40, 0x5e, 0x6d, 0x74, 0x61, 0x98, 0x7c, 0x66, 0x8b, 0x90, 0x8b,
  0x97, 0x9a, 0x8a, 0x6e, 0x71, 0x97, 0x92, 0x8e, 0x81, 0x78, 0x54, 0x95,
  0x5f, 0x6b, 0x53, 0x52, 0x9c, 0x88, 0x7b, 0x63, 0x96, 0x8b, 0x73, 0x98,
  0x75, 0x5f, 0x81, 0x83, 0x8b, 0x86, 0x75, 0x8a, 0x62, 0x7a, 0x9f, 0x8a,
  0x4f, 0xb9, 0x96, 0x9c, 0x96, 0x6c, 0x94, 0x7d, 0xa8, 0x8a, 0x93, 0x96,
  0x5d, 0x74, 0x99, 0x59, 0x95, 0x84, 0x6c, 0x90, 0x7a, 0x6f, 0x87, 0x9e,
  0x88, 0x62, 0x6b, 0x8c, 0x86, 0x5c, 0x7f, 0xa5, 0x53, 0xac, 0x94, 0x89,
  0x9b, 0x64, 0x6c, 0xb7, 0x84, 0xae, 0x57, 0x96, 0x66, 0x72, 0x83, 0x68,
  0x67, 0x66, 0xa4, 0x5e, 0x72, 0x82, 0xa0, 0x6a, 0x77, 0x6e, 0x82, 0x69,
  0x77, 0x90, 0x97, 0x96, 0x93, 0x62, 0xb0, 0x5a, 0x75, 0x88, 0x70, 0x74,
  0x78, 0x93, 0x82, 0x86, 0x97, 0x82, 0x70, 0x9c, 0xa2, 0x9c, 0x9c, 0x9f,
  0x54, 0xa7, 0xa9, 0x95, 0x8d, 0xbf, 0x7d, 0xab, 0x65, 0x63, 0x8a, 0x8a,
  0x82, 0x81, 0x8c, 0x74, 0x7c, 0x90, 0x88, 0x4f, 0x5b, 0x83, 0x93, 0x89,
  0x8d, 0x8e, 0x94, 0x80, 0x8d, 0x86, 0x70, 0x86, 0x84, 0x69, 0x80, 0x8e,
  0x8d, 0x82, 0x87, 0x7b, 0x7d, 0xa1, 0x73, 0x97, 0x9b, 0x65, 0xb7, 0xa6,
  0x9a, 0xe7, 0xd6, 0x7e, 0x97, 0x9a, 0x67, 0xb2, 0x4c, 0x80, 0x70, 0x90,
  0x7e, 0x76, 0x67, 0x8b, 0x93, 0x89, 0x82, 0x8f, 0x99, 0x8a, 0x7d, 0x92,
  0x78, 0x87, 0x89, 0x57, 0x76, 0x7d, 0x3e, 0x82, 0x85, 0x4a, 0x8f, 0x8a,
  0x58, 0xa1, 0xa1, 0xa2, 0xc9, 0xb0, 0x54, 0xef, 0xde, 0x65, 0xb5, 0xb4,
  0x96, 0x72, 0xb7, 0x75, 0x70, 0x88, 0x88, 0x97, 0x67, 0x9f, 0x95, 0x83,
  0x9b, 0x8d, 0xa1, 0x8d, 0x81, 0x9f, 0x8e, 0x81, 0x91, 0x1e, 0x7d, 0x75,
  0x07, 0x70, 0x67, 0x14, 0x79, 0x73, 0x41, 0x8f, 0x86, 0x59, 0xcb, 0x9d,
  0x75, 0xff, 0xfe, 0xa5, 0x77, 0xa7, 0x80, 0xbc, 0x84, 0xa4, 0x8f, 0x7d,
  0x99, 0xa0, 0x6d, 0x8b, 0x9c, 0x89, 0xa9, 0xa3, 0x99, 0xb3, 0x8e, 0x95,
  0x6a, 0x82, 0x9d, 0x02, 0x81, 0x8c, 0x01, 0x7f, 0x68, 0x01, 0x63, 0x5c,
  0x1d, 0x48, 0x36, 0x4a, 0x56, 0x3b, 0x99, 0x7b, 0x8b, 0xb7, 0xa6, 0x81,
  0x62, 0x6e, 0x9b, 0xaa, 0x8d, 0xb6, 0x97, 0x90, 0x8c, 0x7e, 0x83, 0x84,
  0xa4, 0x94, 0x8c, 0x9b, 0x8c, 0x94, 0x69, 0x80, 0xa0, 0x27, 0x83, 0x88,
  0x66, 0x6a, 0x78, 0x64, 0x80, 0x7a, 0x5c, 0x78, 0x7f, 0x55, 0x6c, 0x6d,
  0xa6, 0x6d, 0x70, 0x76, 0x6c, 0x78, 0x8e, 0x8a, 0x92, 0xa3, 0x51, 0x76,
  0x87, 0x76, 0x6d, 0x7f, 0x67, 0x63, 0x93, 0x84, 0x7a, 0x84, 0x75, 0x81,
  0x68, 0x83, 0x84, 0x77, 0x72, 0x8a, 0xa7, 0x83, 0x78, 0x98, 0x87, 0x96,
  0x8b, 0x87, 0x80, 0x77, 0x88, 0x88, 0x93, 0x90, 0x95, 0x9b, 0x7f, 0x90,
  0x57, 0x7d, 0x8d, 0x8e, 0x71, 0x89, 0x83, 0xa5, 0xa5, 0x62, 0x7b, 0x9e,
  0x67, 0x71, 0x6e, 0x60, 0x65, 0x68, 0x79, 0x72, 0x80, 0x94, 0x81, 0x85,
  0x9a, 0x92, 0x9b, 0xb2, 0x8a, 0x92, 0xb8, 0x8c, 0x92, 0x89, 0x97, 0x80,
  0x60, 0x85, 0xb2, 0x7e, 0x77, 0x91, 0x8b, 0xae, 0x51, 0x94, 0x8e, 0x84,
  0xa2, 0x9c, 0x9e, 0x7e, 0xb2, 0xb0, 0x5f, 0x8a, 0x93, 0x62, 0x84, 0x8f,
  0x81, 0x86, 0x76, 0x99, 0x81, 0x7d, 0xb1, 0x82, 0x90, 0xab, 0x90, 0x95,
  0xb9, 0x8f, 0x8f, 0xa1, 0xa5, 0x98, 0x9d, 0xa6, 0x93, 0xa4, 0x5e, 0x65,
  0x6a, 0x6a, 0x9a, 0x8a, 0x83, 0x81, 0x88, 0x92, 0xa2, 0x84, 0x88, 0x9e,
  0x7f, 0x94, 0x93, 0x69, 0x90, 0x94, 0x7e, 0x83, 0x9d, 0x81, 0x89, 0xa0,
  0x91, 0x84, 0x95, 0x95, 0x9a, 0x8d, 0xac, 0x98, 0x96, 0x6f, 0xa5, 0x87,
  0x75, 0x7a, 0x92, 0x87, 0x84, 0xae, 0x6c, 0x56, 0xa1, 0x80, 0xa4, 0xa1,
  0x6a, 0x7f, 0x7c, 0x7b, 0x8d, 0x7b, 0x8b, 0x8f, 0x95, 0x8b, 0xa8, 0x9d,
  0x78, 0x99, 0xab, 0x68, 0xaa, 0x9b, 0x5f, 0x8c, 0x89, 0x83, 0x92, 0x7f,
  0x6c, 0x64, 0xa2, 0x83, 0xa0, 0xa8, 0xad, 0x7b, 0x89, 0x86, 0x8a, 0x7d,
  0x82, 0x6d, 0x8f, 0x7f, 0x7e, 0xa5, 0x7b, 0x5c, 0xa5, 0x97, 0x59, 0xa5,
  0x8b, 0x91, 0xb4, 0x83, 0x97, 0x75, 0x7a, 0xa9, 0x8d, 0x86, 0x8d, 0x8e,
  0x9a, 0x8b, 0x9a, 0x87, 0x62, 0xa8, 0x85, 0x9a, 0xb3, 0x58, 0x76, 0x9a,
  0x64, 0x85, 0x8c, 0xbd, 0x86, 0x7f, 0x88, 0x96, 0xb0, 0x93, 0x99, 0x9b,
  0x76, 0x79, 0x91, 0x67, 0xb4, 0x60, 0xb4, 0x97, 0x54, 0x7f, 0x98, 0x79,
  0x6e, 0x5b, 0xb5, 0x84, 0x53, 0x8f, 0x82, 0xb1, 0x87, 0xa9, 0xb6, 0x78,
  0x85, 0x63, 0x8f, 0x82, 0x83, 0x65, 0x6f, 0x76, 0xa9, 0xa5, 0xbe, 0x96,
  0xaa, 0xa1, 0xaf, 0x9d, 0xa6, 0x8b, 0x6f, 0x83, 0x6e, 0xa7, 0x86, 0xa0,
  0x67, 0xa8, 0xb2, 0x91, 0xa6, 0xac, 0x87, 0xc2, 0xcf, 0x64, 0x9e, 0xa9,
  0x63, 0xbe, 0xc1, 0x8b, 0xa8, 0xc4, 0x72, 0xac, 0x8e, 0x62, 0x8a, 0x93,
  0x9a, 0x91, 0x88, 0x89, 0x7c, 0x9d, 0x89, 0x7e, 0x98, 0x5e, 0x6d, 0x58,
  0xa7, 0x7b, 0x8e, 0x6f, 0xac, 0x79, 0x94, 0xa2, 0xbd, 0xbb, 0x94, 0x93,
  0xb1, 0xa4, 0x84, 0xa2, 0x9b, 0x91, 0xc6, 0xa0, 0xb2, 0xb3, 0xab, 0xb0,
  0x83, 0xcb, 0xd4, 0xab, 0x9e, 0xcb, 0x7e, 0x90, 0x91, 0x7c, 0x69, 0x63,
  0x73, 0x75, 0x89, 0x92, 0x94, 0x7a, 0x6f, 0x98, 0x99, 0x88, 0x8e, 0x90,
  0x8c, 0x86, 0x9e, 0x85, 0x7a, 0x6d, 0x91, 0x7c, 0x6e, 0xae, 0x79, 0x7f,
  0xc3, 0x79, 0x76, 0x7f, 0x7b, 0x95, 0x7d, 0x95, 0x9e, 0x88, 0x93, 0x99,
  0x78, 0x87, 0xaa, 0x5a, 0xa0, 0x9e, 0xb8, 0x6c, 0x60, 0x71, 0x5c, 0x58,
  0x7f, 0x85, 0x59, 0x8c, 0x85, 0x73, 0x7c, 0x7a, 0x8d, 0x8b, 0x6e, 0x78,
  0x90, 0x7c, 0x74, 0x94, 0x69, 0x6b, 0x5f, 0x64, 0x60, 0x77, 0x58, 0x4e,
  0x62, 0x6d, 0x61, 0x8c, 0x75, 0x52, 0x5f, 0x60, 0x6d, 0x5a, 0x6d, 0x75,
  0x95, 0xa0, 0x80, 0x97, 0x99, 0x4a, 0x97, 0x92, 0x67, 0x95, 0x8a, 0x75,
  0x97, 0x80, 0x90, 0x88, 0x75, 0x84, 0xa5, 0x78, 0x7b, 0x5a, 0x68, 0x62,
  0x51, 0x49, 0x39, 0x55, 0x66, 0x4f, 0x50, 0x7f, 0x70, 0x83, 0x81, 0x62,
  0xa1, 0x84, 0x7b, 0x7f, 0x74, 0x66, 0x95, 0x6a, 0xb0, 0x82, 0x6d, 0x61,
  0x96, 0x94, 0x8a, 0x90, 0x9d, 0x6f, 0xa1, 0x98, 0x8d, 0xa8, 0x7e, 0x86,
  0x71, 0x74, 0x8b, 0x76, 0x6c, 0x6f, 0x4c, 0x85, 0x64, 0x46, 0x80, 0x79,
  0x5b, 0x97, 0x8f, 0x8b, 0xae, 0xab, 0x71, 0x77, 0x7a, 0x76, 0x62, 0x78,
  0xaa, 0x98, 0xb3, 0x8f, 0x82, 0x7c, 0x98, 0x91, 0x9c, 0x87, 0x8b, 0x9a,
  0xa0, 0x93, 0x8d, 0x9f, 0x8c, 0x92, 0x83, 0x7e, 0x98, 0xa0, 0x89, 0x86,
  0x6a, 0x7a, 0x82, 0x84, 0x8b, 0x85, 0xce, 0x9d, 0x98, 0xa6, 0xbd, 0xb2,
  0x76, 0x93, 0x95, 0x8f, 0x93, 0x87, 0x78, 0x9c, 0x67, 0x62, 0x77, 0x89,
  0xae, 0x92, 0x72, 0x9e, 0x8f, 0x97, 0xae, 0xa1, 0xa1, 0xaa, 0x8e, 0xa1,
  0xb1, 0x90, 0x93, 0x8e, 0x7e, 0x92, 0x7d, 0x89, 0x79, 0xa4, 0x92, 0x9a,
  0xba, 0x93, 0x8f, 0xc5, 0x88, 0x9b, 0x68, 0x86, 0x89, 0x90, 0x5d, 0x6d,
  0x6c, 0x60, 0x53, 0x70, 0x66, 0x7f, 0x85, 0x89, 0x64, 0xa4, 0x8d, 0x91,
  0xb9, 0x9a, 0x99, 0x97, 0x95, 0xa4, 0x9f, 0x85, 0x97, 0x94, 0x86, 0x8b,
  0x92, 0x97, 0x9c, 0x9b, 0x8d, 0x9b, 0xb1, 0x89, 0x93, 0xa2, 0x8b, 0x7f,
  0x64, 0x5e, 0x7a, 0x81, 0x93, 0x96, 0x89, 0x66, 0xb2, 0x64, 0x66, 0x5b,
  0x90, 0x64, 0x59, 0x98, 0xa1, 0x79, 0xb1, 0x8b, 0x8b, 0xaa, 0x91, 0x9f,
  0x6b, 0x92, 0x86, 0x78, 0x8b, 0x8d, 0x8e, 0x8b, 0x9e, 0x8f, 0x92, 0x9e,
  0x84, 0x8a, 0x8a, 0x9b, 0x77, 0x87, 0x75, 0x6a, 0x77, 0x85, 0x70, 0x57,
  0x9d, 0x75, 0x81, 0x6b, 0x94, 0x70, 0x71, 0x5e, 0x6b, 0x80, 0x54, 0x67,
  0x9c, 0x80, 0x6c, 0x98, 0x85, 0x88, 0x80, 0x80, 0x98, 0x4e, 0x83, 0x9c,
  0x73, 0x81, 0x93, 0x66, 0x8c, 0x7d, 0x5a, 0x61, 0x59, 0xa4, 0x82, 0x91,
  0x98, 0x8b, 0x5f, 0x61, 0x9a, 0x5d, 0x75, 0x95, 0xa7, 0x91, 0x71, 0x63,
  0x71, 0x7e, 0x91, 0x84, 0x82, 0x7f, 0x52, 0x36, 0x5a, 0x74, 0x37, 0x25,
  0x6d, 0x43, 0x4b, 0x4d, 0x51, 0x38, 0x76, 0x4e, 0x45, 0x7b, 0x54, 0x51,
  0x98, 0x74, 0x79, 0x86, 0x7d, 0x6a, 0xad, 0xa6, 0xac, 0x68, 0x72, 0x9d,
  0x92, 0xb0, 0x94, 0x9e, 0x80, 0x8c, 0x7f, 0xa3, 0x8f, 0x83, 0x93, 0x6a,
  0x6a, 0x60, 0x81, 0xa4, 0x77, 0x72, 0x76, 0x6c, 0x91, 0x8c, 0x5a, 0x99,
  0x7f, 0x5e, 0x64, 0x99, 0x8e, 0x88, 0x6b, 0x79, 0x69, 0x55, 0x83, 0xb7,
  0xa5, 0x7d, 0x81, 0x75, 0x94, 0x85, 0x8a, 0x6f, 0x78, 0x83, 0x93, 0x6d,
  0x99, 0x86, 0x80, 0x7b, 0x7e, 0xa3, 0x86, 0x9d, 0x69, 0x81, 0x6e, 0x79,
  0x5d, 0x99, 0x9a, 0x85, 0x84, 0x83, 0xae, 0x81, 0x95, 0xaa, 0x99, 0x71,
  0x6a, 0x96, 0x6a, 0x60, 0x82, 0x85, 0x95, 0x78, 0x9a, 0x97, 0x99, 0x70,
  0x74, 0xab, 0x92, 0x91, 0x7b, 0x6c, 0x8d, 0x90, 0x81, 0x81, 0x72, 0x9c,
  0x62, 0xa8, 0x94, 0x9c, 0x74, 0x9f, 0xa9, 0x98, 0x6a, 0x7c, 0x76, 0xa0,
  0x72, 0x79, 0x87, 0x94, 0xaf, 0x67, 0x7f, 0x95, 0x76, 0x65, 0x95, 0x93,
  0x8a, 0x8f, 0x7f, 0x8a, 0x4f, 0x72, 0x5b, 0x7c, 0x80, 0x68, 0x78, 0xaf,
  0x72, 0x65, 0x85, 0x9c, 0x8c, 0x93, 0x6d, 0x43, 0x8a, 0x93, 0x5f, 0x6c,
  0x5e, 0x57, 0x84, 0x6f, 0x3c, 0x8c, 0x5e, 0x38, 0x9a, 0x62, 0x83, 0x70,
  0x9e, 0x99, 0x7b, 0xa9, 0x9a, 0x68, 0x9d, 0x6c, 0xbd, 0x9c, 0x8c, 0x9d,
  0x7d, 0x9f, 0x8d, 0xa0, 0x93, 0x83, 0x65, 0x75, 0x75, 0x98, 0xb1, 0x99,
  0x76, 0x90, 0x8e, 0x6d, 0x84, 0x6f, 0x42, 0x71, 0x66, 0x69, 0x66, 0x65,
  0x5f, 0x60, 0x52, 0x56, 0x47, 0x69, 0x7a, 0x5c, 0x59, 0x92, 0x52, 0x5f,
  0x6e, 0x8b, 0x6c, 0xa6, 0x8a, 0x6f, 0x6f, 0x88, 0x75, 0x6b, 0x9d, 0x97,
  0xab, 0xaa, 0xc8, 0x98, 0xa3, 0xb7, 0x89, 0x96, 0xae, 0x70, 0x80, 0x9a,
  0x49, 0x8f, 0x94, 0x63, 0x82, 0x91, 0x8c, 0x8e, 0x9b, 0x80, 0x92, 0x92,
  0x85, 0x93, 0x9e, 0x9f, 0x86, 0x7e, 0x69, 0x83, 0x78, 0x55, 0x62, 0x7c,
  0xa3, 0xb2, 0x95, 0xac, 0xc9, 0xaf, 0x84, 0xb6, 0xaa, 0x90, 0x93, 0x91,
  0x84, 0x89, 0xa0, 0x70, 0x85, 0xa0, 0x75, 0x93, 0x9e, 0x73, 0x9f, 0xa3,
  0x86, 0x91, 0x9a, 0x86, 0x95, 0x99, 0xac, 0x94, 0x98, 0x84, 0x7b, 0x85,
  0xa2, 0x66, 0x75, 0x8d, 0xab, 0x84, 0x92, 0x91, 0x62, 0x72, 0xa7, 0xc6,
  0x72, 0xb1, 0xab, 0x76, 0x9e, 0x89, 0x84, 0x98, 0x8a, 0x4c, 0x7e, 0x80,
  0x8b, 0x69, 0x6c, 0xb5, 0x96, 0x8e, 0xaa, 0xa4, 0x9a, 0x91, 0x90, 0x98,
  0x7f, 0x8d, 0x8f, 0x76, 0x7c, 0x7d, 0x55, 0x9a, 0x6b, 0x96, 0x4d, 0x90,
  0x7b, 0x5f, 0x50, 0x95, 0x9e, 0x7e, 0x84, 0xa9, 0xa1, 0x6c, 0x81, 0x82,
  0x69, 0x77, 0x6d, 0x4c, 0x42, 0x4d, 0xb1, 0x49, 0x20, 0xbe, 0x8c, 0x70,
  0xba, 0x89, 0x99, 0xbc, 0x99, 0x9b, 0xae, 0x92, 0x9b, 0x82, 0x90, 0xa2,
  0x93, 0x7d, 0x88, 0x7b, 0x81, 0x92, 0x7b, 0x66, 0x90, 0x89, 0x92, 0x6b,
  0x7c, 0x9f, 0x82, 0x71, 0x7b, 0x90, 0x72, 0x71, 0x72, 0x6f, 0x5a, 0x5b,
  0xa5, 0x81, 0x5e, 0xbc, 0x86, 0x92, 0xd4, 0x9b, 0x91, 0xb4, 0x9d, 0xb2,
  0x7f, 0x9e, 0xa2, 0x7c, 0x87, 0x8d, 0x63, 0x6e, 0x89, 0x75, 0x4f, 0x74,
  0x90, 0x74, 0x8a, 0x87, 0x74, 0x83, 0x71, 0x74, 0x8c, 0x88, 0x6b, 0x77,
  0x8f, 0x73, 0x65, 0x8b, 0x7c, 0x66, 0x96, 0x87, 0x8d, 0xa6, 0x87, 0x90,
  0x91, 0x89, 0x91, 0x84, 0x7e, 0x88, 0x85, 0x76, 0x7e, 0x52, 0x6f, 0x59,
  0x5c, 0x7e, 0x67, 0x9f, 0x7a, 0x9b, 0x92, 0x83, 0xa8, 0x90, 0x8d, 0x89,
  0x5e, 0x5d, 0x8c, 0x73, 0x62, 0x67, 0x7f, 0x6b, 0x5d, 0x9a, 0x7e, 0x71,
  0xa9, 0x88, 0x6f, 0x93, 0x71, 0x72, 0x91, 0x60, 0x6f, 0x83, 0x63, 0x69,
  0x7f, 0x33, 0x51, 0xaa, 0x6e, 0x62, 0x78, 0x7d, 0x60, 0xa1, 0x78, 0x9b,
  0x5f, 0x8d, 0x82, 0x75, 0x7a, 0x78, 0x7e, 0x79, 0x95, 0x70, 0x76, 0x84,
  0x7e, 0x8d, 0x7b, 0x8e, 0x87, 0x7d, 0xad, 0x70, 0x89, 0x8c, 0x6d, 0x85,
  0x8b, 0x65, 0x75, 0x6f, 0x6a, 0x5d, 0x9a, 0x56, 0x5f, 0x7d, 0x81, 0x4c,
  0x75, 0x69, 0xab, 0x66, 0x80, 0x73, 0x80, 0x9f, 0x86, 0x60, 0x86, 0x79,
  0x85, 0xc0, 0xaa, 0x8d, 0xbe, 0xa5, 0x9e, 0x97, 0x90, 0xae, 0x9d, 0x94,
  0xb8, 0x8a, 0x95, 0xa9, 0x93, 0x85, 0x9c, 0x7e, 0x7d, 0x7e, 0x7e, 0x7e,
  0x95, 0x6d, 0x5d, 0x72, 0x9a, 0x7d, 0x5d, 0x9c, 0x9a, 0x76, 0xb4, 0xac,
  0xa4, 0x7d, 0x85, 0x69, 0x89, 0x94, 0x94, 0x7e, 0x62, 0x94, 0xb1, 0xa7,
  0xab, 0xb3, 0xc8, 0xbc, 0xb1, 0xc2, 0xce, 0xac, 0xc4, 0xb8, 0xc1, 0xc2,
  0x90, 0xb8, 0xb7, 0x62, 0xc9, 0x97, 0x9f, 0x74, 0xab, 0x5b, 0x80, 0x5e,
  0x7b, 0x8b, 0x69, 0x7f, 0x5d, 0xa0, 0x81, 0x85, 0x9c, 0x55, 0x7d, 0x68,
  0x79, 0x97, 0x7b, 0x84, 0x8d, 0x9d, 0x72, 0x72, 0xa8, 0xa8, 0x5e, 0xab,
  0x9b, 0x98, 0x92, 0x8a, 0x83, 0xa4, 0x97, 0x94, 0x84, 0x87, 0x8e, 0x9d,
  0x75, 0x5e, 0x6d, 0x7c, 0x78, 0xac, 0x96, 0x8f, 0x70, 0x85, 0x62, 0x6d,
  0x89, 0x99, 0xa5, 0x9f, 0x80, 0x93, 0x74, 0x65, 0x61, 0x99, 0x7a, 0x7b,
  0xa4, 0x7f, 0x98, 0x7f, 0x6c, 0x82, 0x8d, 0x5f, 0x92, 0x9b, 0x7a, 0x78,
  0x79, 0x72, 0x4d, 0x9f, 0x69, 0x95, 0x6a, 0x61, 0x8b, 0x88, 0x84, 0x9d,
  0x56, 0x68, 0x77, 0x65, 0x68, 0x86, 0x8f, 0x6a, 0x77, 0x9e, 0x65, 0xb9,
  0x61, 0x80, 0x8f, 0x8f, 0x87, 0x68, 0x92, 0x8a, 0x92, 0x95, 0x82, 0x67,
  0x80, 0xa0, 0x71, 0x6d, 0x96, 0x89, 0x94, 0x8a, 0x99, 0x94, 0x83, 0x73,
  0x8a, 0x77, 0x94, 0x9a, 0x5e, 0x96, 0xa6, 0x86, 0xaa, 0x95, 0x51, 0x92,
  0x53, 0xa2, 0x96, 0x52, 0x91, 0x62, 0x57, 0x6f, 0x83, 0x7e, 0x8e, 0x76,
  0x7c, 0x8c, 0x8f, 0x84, 0x8f, 0x88, 0x7d, 0x8e, 0x8b, 0x8a, 0x85, 0x98,
  0x91, 0x86, 0x8b, 0x83, 0x79, 0x99, 0x6e, 0x8f, 0x94, 0x83, 0x97, 0x86,
  0x7a, 0xb0, 0x98, 0xa1, 0x66, 0x60, 0x83, 0x69, 0x57, 0x71, 0x89, 0x8b,
  0x8a, 0x8d, 0x6f, 0x87, 0x96, 0x97, 0x7e, 0x8d, 0x99, 0x83, 0x7c, 0x8e,
  0x75, 0x89, 0x84, 0x6f, 0x74, 0x7e, 0x77, 0x80, 0x8a, 0x8e, 0x8b, 0x8c,
  0x94, 0x95, 0x9e, 0x97, 0xb1, 0xa3, 0x76, 0x9c, 0x96, 0x83, 0x92, 0x78,
  0x91, 0xac, 0x7e, 0x6d, 0x80, 0x7c, 0x8d, 0xa7, 0xb1, 0x9c, 0x96, 0x8e,
  0x96, 0x8e, 0xa2, 0x82, 0x7c, 0x9a, 0x80, 0x7d, 0x88, 0x76, 0x78, 0x6b,
  0xa0, 0x79, 0x6c, 0xb4, 0x8a, 0x8a, 0xbb, 0x9b, 0x96, 0x8a, 0xaf, 0x98,
  0x8a, 0xa7, 0x96, 0x6e, 0x89, 0x84, 0xa9, 0x80, 0x82, 0x91, 0x7e, 0x7d,
  0x94, 0xa4, 0x82, 0x86, 0x9a, 0x85, 0x99, 0x98, 0x94, 0x9f, 0x82, 0x8b,
  0x81, 0x84, 0x98, 0x7f, 0x8e, 0x93, 0x93, 0x96, 0x81, 0x92, 0x8a, 0x87,
  0x98, 0x94, 0x8d, 0x9b, 0xa5, 0xa8, 0x67, 0x9e, 0x9b, 0x97, 0x81, 0xb8,
  0x90, 0x81, 0x6e, 0xb1, 0x65, 0x8b, 0x87, 0x7c, 0x56, 0x63, 0x69, 0x6b,
  0x7d, 0x7d, 0x71, 0x97, 0x87, 0x85, 0x8f, 0x8a, 0xa2, 0x6a, 0x92, 0x9b,
  0x64, 0x77, 0x84, 0x69, 0x82, 0x7a, 0x52, 0x7d, 0x7d, 0x96, 0x81, 0x7c,
  0x81, 0x89, 0x66, 0x7a, 0x69, 0x7f, 0x6f, 0x4f, 0x87, 0x75, 0x91, 0x82,
  0x7c, 0x5f, 0x41, 0x68, 0x67, 0x60, 0x81, 0x8b, 0x82, 0x9f, 0x86, 0x88,
  0x72, 0x95, 0x95, 0x3a, 0x7f, 0x98, 0x56, 0x80, 0x7a, 0x3e, 0x74, 0x81,
  0x85, 0x6e, 0x65, 0xa4, 0x6b, 0x75, 0x83, 0x49, 0x71, 0xa9, 0x77, 0x7c,
  0x79, 0x8c, 0xa6, 0x6d, 0x55, 0xa0, 0x6e, 0x8d, 0x45, 0x8d, 0x8c, 0x8f,
  0x9b, 0x98, 0x91, 0x94, 0x91, 0x97, 0x66, 0x81, 0x8f, 0x7c, 0x80, 0x86,
  0x72, 0x86, 0x92, 0x89, 0x79, 0x84, 0x82, 0x7d, 0x84, 0x6e, 0x90, 0x77,
  0x76, 0x71, 0x87, 0x6d, 0x76, 0x77, 0xa7, 0x67, 0x84, 0x5f, 0x69, 0x99,
  0x98, 0x94, 0x61, 0x9d, 0xaf, 0x94, 0x9f, 0x89, 0x8c, 0x9e, 0x7c, 0x86,
  0x8c, 0x79, 0x62, 0x95, 0x74, 0x71, 0xa7, 0x78, 0x87, 0xa3, 0x87, 0x8d,
  0xa2, 0x8c, 0x89, 0x8e, 0x96, 0x92, 0x81, 0x71, 0x90, 0x65, 0x9d, 0xb8,
  0x54, 0xb4, 0x5c, 0x6c, 0x45, 0x72, 0x95, 0x9f, 0x6e, 0x8a, 0x89, 0x99,
  0x93, 0x8e, 0x8a, 0x8a, 0x88, 0x8b, 0x99, 0x7f, 0x94, 0x85, 0x81, 0x9c,
  0x9e, 0x84, 0x90, 0x8e, 0x9a, 0x8b, 0x96, 0x91, 0x8f, 0xa1, 0x83, 0x8e,
  0x9d, 0x7d, 0xa6, 0xa3, 0x90, 0x6c, 0x68, 0x7f, 0x7d, 0x6a, 0x44, 0x91,
  0x6e, 0x5b, 0x73, 0x76, 0x85, 0x60, 0x80, 0x8d, 0x8c, 0x98, 0xa4, 0x9b,
  0x87, 0x9a, 0xaa, 0x61, 0xa9, 0x9a, 0x4b, 0x8e, 0x92, 0x8b, 0x9f, 0x8d,
  0x83, 0x82, 0x95, 0x73, 0x7e, 0x85, 0x95, 0xa7, 0x97, 0x78, 0x6b, 0x89,
  0xa5, 0x61, 0xa8, 0x81, 0x76, 0x7b, 0x6f, 0x8b, 0x74, 0x5d, 0x6a, 0x77,
  0x5e, 0x45, 0x7b, 0x7b, 0x7e, 0x62, 0x97, 0x58, 0x64, 0x66, 0x8c, 0x80,
  0x97, 0x69, 0x70, 0x6f, 0xaf, 0x85, 0x81, 0x66, 0xa1, 0x79, 0x82, 0x94,
  0x93, 0x5c, 0x65, 0x64, 0x79, 0xa1, 0x6e, 0xa4, 0x7e, 0x95, 0x72, 0x93,
  0x74, 0x63, 0x6f, 0x82, 0x84, 0x6d, 0xa5, 0x7f, 0x7d, 0x7e, 0xa3, 0x91,
  0x79, 0x8e, 0x81, 0x65, 0x5e, 0x8b, 0x88, 0x56, 0xb3, 0x93, 0xaa, 0x54,
  0x8e, 0x6d, 0x9d, 0x7f, 0x84, 0x97, 0x7a, 0x9b, 0x8e, 0x66, 0x86, 0x98,
  0x80, 0x9f, 0x7b, 0x7e, 0x51, 0x82, 0x6c, 0x90, 0x8c, 0x89, 0xaf, 0xb0,
  0x65, 0x9d, 0x76, 0x82, 0x75, 0x9b, 0x60, 0x72, 0x72, 0xa4, 0x98, 0x72,
  0x73, 0x86, 0x75, 0xb3, 0x66, 0x5d, 0xac, 0x90, 0x59, 0x68, 0xb9, 0x6b,
  0x9b, 0x66, 0x7c, 0xb2, 0x4e, 0x63, 0xa9, 0xa1, 0xb0, 0x4c, 0x96, 0x71,
  0x6b, 0x6b, 0x89, 0xa2, 0x5f, 0x91, 0xa7, 0x78, 0x8d, 0x7d, 0x65, 0x74,
  0x5c, 0x52, 0x57, 0x4c, 0x24, 0x4a, 0x8b, 0x42, 0x4e, 0x7d, 0x6d, 0x5f,
  0x69, 0x83, 0x8b, 0x73, 0x73, 0x73, 0xac, 0x89, 0x81, 0xb5, 0x95, 0x7c,
  0x88, 0x88, 0x70, 0x85, 0x8e, 0x85, 0x94, 0x6a, 0xa1, 0x6f, 0x58, 0x77,
  0x63, 0x5a, 0x7b, 0x61, 0x80, 0x6f, 0x57, 0x88, 0x81, 0x56, 0x7f, 0x8b,
  0x43, 0x78, 0x77, 0x5d, 0x63, 0x7e, 0x7e, 0x5c, 0x63, 0x6e, 0x47, 0x3e,
  0x89, 0x4e, 0x80, 0x85, 0x76, 0x82, 0x76, 0x87, 0x79, 0x55, 0x85, 0x74,
  0x5d, 0x59, 0x6c, 0x6b, 0x7d, 0x6f, 0x6e, 0x83, 0x8d, 0x83, 0x7a, 0x8d,
  0x8c, 0x93, 0x91, 0x5a, 0x85, 0x96, 0x43, 0x8b, 0x9a, 0x54, 0x88, 0x87,
  0x68, 0x83, 0x8f, 0x53, 0x61, 0x63, 0x80, 0x63, 0x52, 0x86, 0x8e, 0x7a,
  0x94, 0x89, 0x74, 0x74, 0x68, 0x60, 0x85, 0x9f, 0x61, 0x8f, 0x8e, 0x80,
  0x97, 0x89, 0x9a, 0x8f, 0x7f, 0x99, 0x89, 0x7f, 0x80, 0x82, 0x7c, 0x72,
  0xa3, 0x7f, 0x7f, 0xac, 0x89, 0x88, 0x87, 0x8b, 0x8d, 0x8b, 0x73, 0x69,
  0x66, 0x69, 0x49, 0x9a, 0x9c, 0x6d, 0x81, 0x81, 0x7c, 0x88, 0x90, 0x73,
  0x92, 0xb6, 0x95, 0x94, 0xa8, 0x91, 0xa6, 0xa5, 0x9f, 0x98, 0x82, 0x8e,
  0x6d, 0x6b, 0x77, 0xa0, 0x97, 0x95, 0xa2, 0xa8, 0x9c, 0xa1, 0x97, 0x9e,
  0xac, 0xa0, 0xa0, 0x85, 0x77, 0x99, 0x6b, 0x7e, 0x80, 0x9a, 0x4c, 0x82,
  0x5e, 0x4d, 0x8e, 0x8f, 0xa3, 0x84, 0x9f, 0xb1, 0xb4, 0x89, 0x8c, 0x9a,
  0x97, 0x90, 0x8c, 0x7b, 0x7f, 0x83, 0x89, 0x86, 0x90, 0x99, 0x9d, 0x9f,
  0x91, 0x90, 0xa1, 0xaf, 0x9b, 0xa0, 0xa3, 0x8c, 0x99, 0x91, 0x68, 0x86,
  0x9d, 0x80, 0x77, 0x89, 0x8e, 0x8f, 0x81, 0x5f, 0x79, 0x9e, 0x72, 0x72,
  0x8e, 0x94, 0x95, 0x8a, 0x82, 0x9a, 0x8d, 0x8f, 0x9b, 0x50, 0x81, 0x8d,
  0x73, 0x8e, 0x84, 0x98, 0x87, 0x96, 0x9e, 0x99, 0x94, 0x94, 0x88, 0xa0,
  0x66, 0x6e, 0x6c, 0x9b, 0x35, 0x78, 0x7b, 0x64, 0x60, 0x5d, 0x84, 0xb8,
  0x7d, 0x54, 0x7e, 0x81, 0x78, 0x78, 0x73, 0x76, 0x88, 0x84, 0x79, 0x89,
  0x6e, 0x88, 0x8c, 0x46, 0x85, 0x8c, 0x82, 0x80, 0x89, 0x9c, 0x8a, 0x8a,
  0x7e, 0x8c, 0x95, 0x9d, 0x76, 0x82, 0x7c, 0x64, 0x7b, 0x9e, 0x51, 0x62,
  0x87, 0x8b, 0x53, 0xb6, 0x97, 0x93, 0x5d, 0x9f, 0xa0, 0x76, 0x86, 0x62,
  0x73, 0x5d, 0x7f, 0x6f, 0x6b, 0x87, 0x62, 0x5c, 0x4b, 0x7b, 0x6c, 0x60,
  0xa2, 0x7e, 0x5a, 0x99, 0x73, 0x6e, 0x95, 0x67, 0x79, 0x7d, 0x78, 0x79,
  0x71, 0x74, 0x76, 0x70, 0x84, 0x89, 0x8f, 0x79, 0x82, 0x84, 0x6f, 0x71,
  0x6f, 0x9b, 0x7d, 0x6f, 0x7d, 0x6b, 0x56, 0x71, 0x82, 0x68, 0x68, 0x7e,
  0x6f, 0x86, 0x73, 0x81, 0x7f, 0x78, 0xa2, 0x71, 0x84, 0x8f, 0x6f, 0x81,
  0x92, 0x6f, 0x79, 0x96, 0x89, 0x74, 0x6a, 0x8d, 0x7b, 0xc2, 0x9a, 0x6d,
  0x90, 0x6d, 0x9c, 0x98, 0x7a, 0x99, 0x87, 0x8c, 0x76, 0x8f, 0x99, 0x8e,
  0x64, 0x63, 0x81, 0x80, 0xb4, 0x8d, 0x8c, 0x93, 0x91, 0xa1, 0x9b, 0x8c,
  0xaa, 0x84, 0x8e, 0xa6, 0x90, 0x7b, 0x9c, 0x84, 0x81, 0xae, 0xa1, 0x98,
  0x8f, 0xb1, 0xb3, 0x78, 0xba, 0xce, 0x8c, 0x7a, 0x74, 0x8a, 0x53, 0xa2,
  0x85, 0x98, 0x87, 0xa3, 0x9c, 0x95, 0x83, 0x93, 0x8c, 0x96, 0xb4, 0x99,
  0xa6, 0xa6, 0xb9, 0xb1, 0xa5, 0xb3, 0xc5, 0xa4, 0xbc, 0xb9, 0xb0, 0xab,
  0xae, 0xab, 0xb7, 0x9e, 0xcb, 0xb7, 0x70, 0xac, 0xb2, 0x9a, 0xa1, 0x9d,
  0xb6, 0x58, 0x52, 0xb3, 0xa2, 0x93, 0x6b, 0x75, 0x62, 0x8d, 0x87, 0x8d,
  0x76, 0x7c, 0x94, 0x66, 0x79, 0x71, 0x70, 0xab, 0x84, 0x75, 0x65, 0xad,
  0x88, 0x71, 0x64, 0x5f, 0x67, 0x93, 0xa7, 0x85, 0x65, 0x76, 0x74, 0x6a,
  0x84, 0x6d, 0x9f, 0x66, 0xac, 0x86, 0x77, 0x7a, 0x87, 0x91, 0x57, 0xa6,
  0xe0, 0xfa, 0xff, 0xff, 0xac, 0xfb, 0xff, 0xff, 0x20, 0x00, 0x00, 0x00,
  0x14, 0x00, 0x00, 0x00, 0x08, 0x00, 0x00, 0x00, 0x88, 0x04, 0x00, 0x00,
  0x01, 0x00, 0x00, 0x00, 0x07, 0x00, 0x00, 0x00, 0x01, 0x00, 0x00, 0x00,
  0x06, 0x00, 0x00, 0x00, 0x0a, 0x00, 0x00, 0x00, 0xd4, 0x02, 0x00, 0x00,
  0x5c, 0x00, 0x00, 0x00, 0x78, 0x01, 0x00, 0x00, 0xe4, 0x01, 0x00, 0x00,
  0x18, 0x00, 0x00, 0x00, 0x04, 0x01, 0x00, 0x00, 0x98, 0x00, 0x00, 0x00,
  0x44, 0x02, 0x00, 0x00, 0x10, 0x03, 0x00, 0x00, 0xac, 0x03, 0x00, 0x00,
  0x66, 0xfc, 0xff, 0xff, 0x00, 0x00, 0x00, 0x02, 0x24, 0x00, 0x00, 0x00,
  0x0a, 0x00, 0x00, 0x00, 0x08, 0x00, 0x00, 0x00, 0x20, 0x00, 0x00, 0x00,
  0x0d, 0x00, 0x00, 0x00, 0x52, 0x65, 0x73, 0x68, 0x61, 0x70, 0x65, 0x2f,
  0x73, 0x68, 0x61, 0x70, 0x65, 0x00, 0x00, 0x00, 0x01, 0x00, 0x00, 0x00,
  0x04, 0x00, 0x00, 0x00, 0x68, 0xfb, 0xff, 0xff, 0x9e, 0xfc, 0xff, 0xff,
  0x00, 0x00, 0x00, 0x02, 0x20, 0x00, 0x00, 0x00, 0x09, 0x00, 0x00, 0x00,
  0x08, 0x00, 0x00, 0x00, 0x1c, 0x00, 0x00, 0x00, 0x0b, 0x00, 0x00, 0x00,
  0x4d, 0x61, 0x74, 0x4d, 0x75, 0x6c, 0x5f, 0x62, 0x69, 0x61, 0x73, 0x00,
  0x01, 0x00, 0x00, 0x00, 0x0a, 0x00, 0x00, 0x00, 0x8c, 0xfd, 0xff, 0xff,
  0x14, 0x00, 0x00, 0x00, 0x04, 0x00, 0x00, 0x00, 0x01, 0x00, 0x00, 0x00,
  0x00, 0x00, 0x00, 0x00, 0x00, 0x00, 0x00, 0x00, 0x01, 0x00, 0x00, 0x00,
  0x3b, 0x87, 0x7e, 0x38, 0xee, 0xfc, 0xff, 0xff, 0x00, 0x00, 0x00, 0x03,
  0x1c, 0x00, 0x00, 0x00, 0x08, 0x00, 0x00, 0x00, 0x08, 0x00, 0x00, 0x00,
  0x1c, 0x00, 0x00, 0x00, 0x05, 0x00, 0x00, 0x00, 0x69, 0x6e, 0x70, 0x75,
  0x74, 0x00, 0x00, 0x00, 0x02, 0x00, 0x00, 0x00, 0x01, 0x00, 0x00, 0x00,
  0x10, 0x03, 0x00, 0x00, 0xb4, 0xfc, 0xff, 0xff, 0x2c, 0x00, 0x00, 0x00,
  0x20, 0x00, 0x00, 0x00, 0x14, 0x00, 0x00, 0x00, 0x04, 0x00, 0x00, 0x00,
  0x01, 0x00, 0x00, 0x00, 0x00, 0x00, 0x00, 0x00, 0x00, 0x00, 0x00, 0x00,
  0x01, 0x00, 0x00, 0x00, 0x00, 0x00, 0x80, 0x3f, 0x01, 0x00, 0x00, 0x00,
  0x00, 0x00, 0x7f, 0x43, 0x01, 0x00, 0x00, 0x00, 0x00, 0x00, 0x00, 0x00,
  0x56, 0xfd, 0xff, 0xff, 0x00, 0x00, 0x00, 0x03, 0x1c, 0x00, 0x00, 0x00,
  0x07, 0x00, 0x00, 0x00, 0x08, 0x00, 0x00, 0x00, 0x1c, 0x00, 0x00, 0x00,
  0x05, 0x00, 0x00, 0x00, 0x61, 0x64, 0x64, 0x5f, 0x31, 0x00, 0x00, 0x00,
  0x02, 0x00, 0x00, 0x00, 0x01, 0x00, 0x00, 0x00, 0x0a, 0x00, 0x00, 0x00,
  0x1c, 0xfd, 0xff, 0xff, 0x2c, 0x00, 0x00, 0x00, 0x20, 0x00, 0x00, 0x00,
  0x14, 0x00, 0x00, 0x00, 0x04, 0x00, 0x00, 0x00, 0x01, 0x00, 0x00, 0x00,
  0x93, 0x00, 0x00, 0x00, 0x00, 0x00, 0x00, 0x00, 0x01, 0x00, 0x00, 0x00,
  0x8a, 0xb8, 0x18, 0x3e, 0x01, 0x00, 0x00, 0x00, 0xb4, 0xdb, 0x80, 0x41,
  0x01, 0x00, 0x00, 0x00, 0xee, 0x63, 0xaf, 0xc1, 0xbe, 0xfd, 0xff, 0xff,
  0x00, 0x00, 0x00, 0x03, 0x1c, 0x00, 0x00, 0x00, 0x06, 0x00, 0x00, 0x00,
  0x08, 0x00, 0x00, 0x00, 0x24, 0x00, 0x00, 0x00, 0x04, 0x00, 0x00, 0x00,
  0x52, 0x65, 0x6c, 0x75, 0x00, 0x00, 0x00, 0x00, 0x04, 0x00, 0x00, 0x00,
  0x01, 0x00, 0x00, 0x00, 0x0e, 0x00, 0x00, 0x00, 0x0e, 0x00, 0x00, 0x00,
  0x03, 0x00, 0x00, 0x00, 0x8c, 0xfd, 0xff, 0xff, 0x2c, 0x00, 0x00, 0x00,
  0x20, 0x00, 0x00, 0x00, 0x14, 0x00, 0x00, 0x00, 0x04, 0x00, 0x00, 0x00,
  0x01, 0x00, 0x00, 0x00, 0x00, 0x00, 0x00, 0x00, 0x00, 0x00, 0x00, 0x00,
  0x01, 0x00, 0x00, 0x00, 0x92, 0xfe, 0x31, 0x3e, 0x01, 0x00, 0x00, 0x00,
  0x93, 0x4c, 0x31, 0x42, 0x01, 0x00, 0x00, 0x00, 0x00, 0x00, 0x00, 0x00,
  0x2e, 0xfe, 0xff, 0xff, 0x00, 0x00, 0x00, 0x03, 0x1c, 0x00, 0x00, 0x00,
  0x05, 0x00, 0x00, 0x00, 0x08, 0x00, 0x00, 0x00, 0x24, 0x00, 0x00, 0x00,
  0x07, 0x00, 0x00, 0x00, 0x52, 0x65, 0x73, 0x68, 0x61, 0x70, 0x65, 0x00,
  0x04, 0x00, 0x00, 0x00, 0x01, 0x00, 0x00, 0x00, 0x1c, 0x00, 0x00, 0x00,
  0x1c, 0x00, 0x00, 0x00, 0x01, 0x00, 0x00, 0x00, 0xfc, 0xfd, 0xff, 0xff,
  0x2c, 0x00, 0x00, 0x00, 0x20, 0x00, 0x00, 0x00, 0x14, 0x00, 0x00, 0x00,
  0x04, 0x00, 0x00, 0x00, 0x01, 0x00, 0x00, 0x00, 0x00, 0x00, 0x00, 0x00,
  0x00, 0x00, 0x00, 0x00, 0x01, 0x00, 0x00, 0x00, 0x00, 0x00, 0x80, 0x3f,
  0x01, 0x00, 0x00, 0x00, 0x00, 0x00, 0x7f, 0x43, 0x01, 0x00, 0x00, 0x00,
  0x00, 0x00, 0x00, 0x00, 0x9e, 0xfe, 0xff, 0xff, 0x00, 0x00, 0x00, 0x03,
  0x24, 0x00, 0x00, 0x00, 0x04, 0x00, 0x00, 0x00, 0x08, 0x00, 0x00, 0x00,
  0x24, 0x00, 0x00, 0x00, 0x0e, 0x00, 0x00, 0x00, 0x6c, 0x61, 0x62, 0x65,
  0x6c, 0x73, 0x5f, 0x73, 0x6f, 0x66, 0x74, 0x6d, 0x61, 0x78, 0x00, 0x00,
  0x02, 0x00, 0x00, 0x00, 0x01, 0x00, 0x00, 0x00, 0x0a, 0x00, 0x00, 0x00,
  0x6c, 0xfe, 0xff, 0xff, 0x30, 0x00, 0x00, 0x00, 0x24, 0x00, 0x00, 0x00,
  0x18, 0x00, 0x00, 0x00, 0x04, 0x00, 0x00, 0x00, 0x01, 0x00, 0x00, 0x00,
  0x00, 0x00, 0x00, 0x00, 0x00, 0x00, 0x00, 0x00, 0x00, 0x00, 0x00, 0x00,
  0x01, 0x00, 0x00, 0x00, 0x00, 0x00, 0x80, 0x3b, 0x01, 0x00, 0x00, 0x00,
  0x00, 0x00, 0x7f, 0x3f, 0x01, 0x00, 0x00, 0x00, 0x00, 0x00, 0x00, 0x00,
  0x12, 0xff, 0xff, 0xff, 0x00, 0x00, 0x00, 0x02, 0x20, 0x00, 0x00, 0x00,
  0x03, 0x00, 0x00, 0x00, 0x08, 0x00, 0x00, 0x00, 0x28, 0x00, 0x00, 0x00,
  0x0b, 0x00, 0x00, 0x00, 0x43, 0x6f, 0x6e, 0x76, 0x32, 0x44, 0x5f, 0x62,
  0x69, 0x61, 0x73, 0x00, 0x01, 0x00, 0x00, 0x00, 0x03, 0x00, 0x00, 0x00,
  0x0c, 0x00, 0x0c, 0x00, 0x00, 0x00, 0x00, 0x00, 0x04, 0x00, 0x08, 0x00,
  0x0c, 0x00, 0x00, 0x00, 0x14, 0x00, 0x00, 0x00, 0x04, 0x00, 0x00, 0x00,
  0x01, 0x00, 0x00, 0x00, 0x00, 0x00, 0x00, 0x00, 0x00, 0x00, 0x00, 0x00,
  0x01, 0x00, 0x00, 0x00, 0xeb, 0x06, 0x11, 0x3a, 0x6e, 0xff, 0xff, 0xff,
  0x00, 0x00, 0x00, 0x03, 0x3c, 0x00, 0x00, 0x00, 0x02, 0x00, 0x00, 0x00,
  0x08, 0x00, 0x00, 0x00, 0x44, 0x00, 0x00, 0x00, 0x25, 0x00, 0x00, 0x00,
  0x77, 0x65, 0x69, 0x67, 0x68, 0x74, 0x73, 0x5f, 0x71, 0x75, 0x61, 0x6e,
  0x74, 0x2f, 0x46, 0x61, 0x6b, 0x65, 0x51, 0x75, 0x61, 0x6e, 0x74, 0x57,
  0x69, 0x74, 0x68, 0x4d, 0x69, 0x6e, 0x4d, 0x61, 0x78, 0x56, 0x61, 0x72,
  0x73, 0x00, 0x00, 0x00, 0x04, 0x00, 0x00, 0x00, 0x01, 0x00, 0x00, 0x00,
  0x03, 0x00, 0x00, 0x00, 0x03, 0x00, 0x00, 0x00, 0x03, 0x00, 0x00, 0x00,
  0x5c, 0xff, 0xff, 0xff, 0x2c, 0x00, 0x00, 0x00, 0x20, 0x00, 0x00, 0x00,
  0x14, 0x00, 0x00, 0x00, 0x04, 0x00, 0x00, 0x00, 0x01, 0x00, 0x00, 0x00,
  0xa5, 0x00, 0x00, 0x00, 0x00, 0x00, 0x00, 0x00, 0x01, 0x00, 0x00, 0x00,
  0xeb, 0x06, 0x11, 0x3a, 0x01, 0x00, 0x00, 0x00, 0x8e, 0x0a, 0x4c, 0x3d,
  0x01, 0x00, 0x00, 0x00, 0x73, 0xc4, 0xb9, 0xbd, 0x00, 0x00, 0x0e, 0x00,
  0x18, 0x00, 0x08, 0x00, 0x07, 0x00, 0x0c, 0x00, 0x10, 0x00, 0x14, 0x00,
  0x0e, 0x00, 0x00, 0x00, 0x00, 0x00, 0x00, 0x03, 0x48, 0x00, 0x00, 0x00,
  0x01, 0x00, 0x00, 0x00, 0x08, 0x00, 0x00, 0x00, 0x54, 0x00, 0x00, 0x00,
  0x31, 0x00, 0x00, 0x00, 0x77, 0x65, 0x69, 0x67, 0x68, 0x74, 0x73, 0x5f,
  0x71, 0x75, 0x61, 0x6e, 0x74, 0x5f, 0x31, 0x2f, 0x46, 0x61, 0x6b, 0x65,
  0x51, 0x75, 0x61, 0x6e, 0x74, 0x57, 0x69, 0x74, 0x68, 0x4d, 0x69, 0x6e,
  0x4d, 0x61, 0x78, 0x56, 0x61, 0x72, 0x73, 0x2f, 0x74, 0x72, 0x61, 0x6e,
  0x73, 0x70, 0x6f, 0x73, 0x65, 0x00, 0x00, 0x00, 0x02, 0x00, 0x00, 0x00,
  0x0a, 0x00, 0x00, 0x00, 0x4c, 0x02, 0x00, 0x00, 0x0c, 0x00, 0x14, 0x00,
