unsigned char fc_320_tflite[] = {
        0x18, 0x00, 0x00, 0x00, 0x54, 0x46, 0x4c, 0x33, 0x00, 0x00, 0x0e, 0x00,
        0x18, 0x00, 0x04, 0x00, 0x08, 0x00, 0x0c, 0x00, 0x10, 0x00, 0x14, 0x00,
        0x0e, 0x00, 0x00, 0x00, 0x03, 0x00, 0x00, 0x00, 0x80, 0x0b, 0x00, 0x00,
        0x0c, 0x00, 0x00, 0x00, 0x10, 0x00, 0x00, 0x00, 0x20, 0x00, 0x00, 0x00,
        0x01, 0x00, 0x00, 0x00, 0xb4, 0x04, 0x00, 0x00, 0x0f, 0x00, 0x00, 0x00,
        0x54, 0x4f, 0x43, 0x4f, 0x20, 0x43, 0x6f, 0x6e, 0x76, 0x65, 0x72, 0x74,
        0x65, 0x64, 0x2e, 0x00, 0x0b, 0x00, 0x00, 0x00, 0x94, 0x04, 0x00, 0x00,
        0x48, 0x04, 0x00, 0x00, 0xe0, 0x03, 0x00, 0x00, 0x40, 0x02, 0x00, 0x00,
        0x38, 0x02, 0x00, 0x00, 0x1c, 0x02, 0x00, 0x00, 0x14, 0x02, 0x00, 0x00,
        0xb4, 0x01, 0x00, 0x00, 0xac, 0x01, 0x00, 0x00, 0x0c, 0x00, 0x00, 0x00,
        0x04, 0x00, 0x00, 0x00, 0x70, 0xf5, 0xff, 0xff, 0xea, 0xfb, 0xff, 0xff,
        0x04, 0x00, 0x00, 0x00, 0x90, 0x01, 0x00, 0x00, 0xd4, 0xbd, 0xe6, 0xce,
        0xbe, 0xb3, 0x60, 0xc1, 0xac, 0xc7, 0xcc, 0xf5, 0x46, 0xb4, 0x9f, 0x75,
        0x95, 0xc8, 0x75, 0xc6, 0xb9, 0xbf, 0xbf, 0xbb, 0xbc, 0xc5, 0xba, 0xbc,
        0xb7, 0xbd, 0xb3, 0xc0, 0xc3, 0xbf, 0xb3, 0xb3, 0xbc, 0xbf, 0xbd, 0xc3,
        0xc1, 0xba, 0xb5, 0xbd, 0xbf, 0xbe, 0xb4, 0xc6, 0xc4, 0xb7, 0xbe, 0xbf,
        0xb5, 0xba, 0xc6, 0xbb, 0xbc, 0xc3, 0xb5, 0xb8, 0xd8, 0x9a, 0xd9, 0xb5,
        0xc2, 0xc9, 0xc4, 0xb8, 0xc1, 0xd1, 0xcc, 0xe0, 0xbe, 0xa8, 0xca, 0xc9,
        0xbc, 0xcd, 0xc5, 0xbe, 0xb5, 0xb6, 0xb6, 0xc1, 0xc0, 0xc4, 0xb6, 0xb9,
        0xc8, 0xc0, 0xb5, 0xc0, 0xc1, 0xb9, 0xb7, 0xbd, 0xba, 0xb5, 0xc2, 0xb5,
        0xd2, 0x9f, 0xd5, 0xb2, 0xc3, 0xc0, 0xd0, 0xb9, 0xaf, 0xcb, 0xc6, 0xdd,
        0xcb, 0xa9, 0xbf, 0xc1, 0xaa, 0xc2, 0xc5, 0xc4, 0xa0, 0xf9, 0xa1, 0xd8,
        0xb6, 0xbe, 0x5a, 0xc5, 0xc8, 0xb8, 0xc8, 0x9b, 0xc4, 0xe9, 0x42, 0x16,
        0xd3, 0xba, 0x00, 0xcb, 0x80, 0xff, 0x7b, 0xd6, 0xc4, 0xb6, 0x6c, 0xc2,
        0xcf, 0xb4, 0xc7, 0x85, 0xdd, 0xe7, 0x3e, 0x2b, 0xd7, 0xbe, 0x16, 0xc8,
        0x9e, 0xee, 0x89, 0xdd, 0xb5, 0xc2, 0x97, 0xb9, 0xab, 0xa0, 0xb4, 0x92,
        0xd1, 0xe8, 0x96, 0x8e, 0xbe, 0xc4, 0x96, 0xb9, 0xcc, 0xac, 0xd1, 0xac,
        0xbe, 0xc2, 0xca, 0xc1, 0xb7, 0xcc, 0xc6, 0xd8, 0xc3, 0xb0, 0xbf, 0xcc,
        0xb5, 0xc9, 0xc9, 0xc5, 0xb5, 0xda, 0x9b, 0xc9, 0xb7, 0xba, 0x88, 0xba,
        0xc5, 0xc1, 0xc3, 0xa4, 0xdc, 0xd4, 0x5d, 0x35, 0xc9, 0xc3, 0x1f, 0xc5,
        0xb5, 0xc7, 0xc3, 0xb4, 0xc3, 0xc4, 0xc5, 0xc4, 0xbb, 0xb4, 0xc3, 0xbb,
        0xba, 0xba, 0xbd, 0xb6, 0xc2, 0xc1, 0xb7, 0xb5, 0xd2, 0xa5, 0xd8, 0xb7,
        0xb7, 0xbe, 0xc9, 0xb4, 0xb8, 0xcb, 0xc4, 0xd6, 0xbe, 0xa4, 0xcb, 0xc2,
        0xb6, 0xc2, 0xc5, 0xbd, 0xd8, 0x8f, 0xd5, 0xa7, 0xc6, 0xbf, 0xd4, 0xb9,
        0xb5, 0xca, 0xca, 0xe7, 0xbe, 0xad, 0xc0, 0xcc, 0xb4, 0xd0, 0xc4, 0xc2,
        0xd6, 0xf7, 0xc1, 0xda, 0xb3, 0xc2, 0x4b, 0xc5, 0xc0, 0xc8, 0xba, 0xd4,
        0x96, 0xdc, 0x53, 0x2e, 0xc8, 0xb8, 0x24, 0xc6, 0xbe, 0xd7, 0xa8, 0xdd,
        0xc2, 0xc6, 0x68, 0xbd, 0xb4, 0xbb, 0xc7, 0xc0, 0x58, 0xc0, 0xaf, 0xa3,
        0xaa, 0xc3, 0xa7, 0xbd, 0xde, 0x99, 0xd9, 0xa4, 0xbf, 0xc3, 0xd5, 0xb7,
        0xad, 0xca, 0xc5, 0xe6, 0xb7, 0xab, 0xcd, 0xcf, 0xae, 0xcd, 0xc5, 0xc3,
        0x98, 0xe8, 0x85, 0xd7, 0xc2, 0xb9, 0x60, 0xc6, 0xb8, 0xb7, 0xca, 0xa2,
        0x75, 0xb5, 0x8f, 0xa9, 0xb8, 0xca, 0x81, 0xbf, 0xb2, 0xe5, 0xa1, 0xd0,
        0xb6, 0xb5, 0x68, 0xc2, 0xc8, 0xc1, 0xc8, 0xb7, 0xc3, 0xde, 0x44, 0x21,
        0xcb, 0xbf, 0x08, 0xc6, 0xf7, 0xa4, 0xdf, 0xbf, 0xc2, 0xb9, 0xc2, 0xc1,
        0xb3, 0xd1, 0xb6, 0xea, 0xc1, 0xa5, 0xd2, 0xc1, 0xb0, 0xcd, 0xdb, 0xb8,
        0x10, 0xf7, 0xff, 0xff, 0x8a, 0xfd, 0xff, 0xff, 0x04, 0x00, 0x00, 0x00,
        0x50, 0x00, 0x00, 0x00, 0x01, 0x00, 0x00, 0x00, 0x00, 0x00, 0x00, 0x00,
        0x00, 0x00, 0x00, 0x00, 0x02, 0x00, 0x00, 0x00, 0x00, 0x00, 0x00, 0x00,
        0x02, 0x00, 0x00, 0x00, 0x00, 0x00, 0x00, 0x00, 0x00, 0x00, 0x00, 0x00,
        0xff, 0xff, 0xff, 0xff, 0x03, 0x00, 0x00, 0x00, 0x01, 0x00, 0x00, 0x00,
        0x00, 0x00, 0x00, 0x00, 0x02, 0x00, 0x00, 0x00, 0x03, 0x00, 0x00, 0x00,
        0xff, 0xff, 0xff, 0xff, 0x00, 0x00, 0x00, 0x00, 0x03, 0x00, 0x00, 0x00,
        0x00, 0x00, 0x00, 0x00, 0x01, 0x00, 0x00, 0x00, 0x01, 0x00, 0x00, 0x00,
        0x70, 0xf7, 0xff, 0xff, 0xea, 0xfd, 0xff, 0xff, 0x04, 0x00, 0x00, 0x00,
        0x0c, 0x00, 0x00, 0x00, 0x00, 0x00, 0x00, 0x00, 0xfe, 0xff, 0xff, 0xff,
        0x00, 0x00, 0x00, 0x00, 0x8c, 0xf7, 0xff, 0xff, 0x06, 0xfe, 0xff, 0xff,
        0x04, 0x00, 0x00, 0x00, 0x90, 0x01, 0x00, 0x00, 0xd3, 0xc9, 0xd2, 0xd6,
        0xc5, 0xd3, 0xd2, 0xd4, 0xce, 0xf2, 0xd2, 0xd1, 0xd2, 0xd1, 0xdc, 0xd3,
        0xd1, 0xd2, 0xd2, 0xd1, 0xd6, 0xd7, 0xd8, 0xd5, 0xf9, 0xcf, 0xd0, 0xcf,
        0xcf, 0xbd, 0xd4, 0xd1, 0xd3, 0xd3, 0xd2, 0xd1, 0xd2, 0xd2, 0xd2, 0xde,
        0xd3, 0xd6, 0xcd, 0xca, 0xa7, 0xcd, 0xcc, 0xd3, 0xd6, 0xed, 0xd2, 0xd2,
        0xd2, 0xd2, 0xd6, 0xd2, 0xd2, 0xd0, 0xd1, 0xc4, 0xd2, 0xd2, 0xd3, 0xd6,
        0xff, 0xd4, 0xd5, 0xd7, 0xd6, 0xc4, 0xd2, 0xd3, 0xd2, 0xd2, 0xda, 0xd3,
        0xd0, 0xd3, 0xd2, 0xde, 0xd1, 0xd3, 0xcb, 0xcf, 0xcc, 0xd0, 0xcc, 0xcd,
        0xd2, 0xd3, 0xcb, 0xd1, 0xcd, 0xce, 0xce, 0xd3, 0xd4, 0xcc, 0xd2, 0xd6,
        0xcd, 0xcf, 0xd1, 0xcc, 0xd1, 0xce, 0xd4, 0xd2, 0xd3, 0xd0, 0xd5, 0xcd,
        0xcf, 0xcb, 0xd2, 0xcc, 0xcd, 0xd0, 0xcd, 0xd1, 0xd1, 0xd0, 0xd1, 0xd3,
        0x1f, 0xd0, 0xd2, 0xd6, 0xcf, 0xb2, 0xd4, 0xd1, 0xd4, 0xd3, 0xd1, 0xd4,
        0xd2, 0xd2, 0xcf, 0xc7, 0xd2, 0xce, 0xd4, 0xcc, 0xd5, 0xce, 0xcf, 0xcf,
        0xcf, 0xd0, 0xcc, 0xd2, 0xd1, 0xce, 0xd2, 0xd4, 0xd0, 0xcc, 0xce, 0xcc,
        0xc9, 0xcf, 0xdb, 0xd5, 0xd1, 0xd2, 0xd3, 0xd1, 0xcd, 0xc0, 0xd6, 0xd1,
        0xcd, 0xd1, 0xc2, 0xd4, 0xd1, 0xcd, 0xd1, 0xbf, 0xd9, 0xd2, 0xd7, 0xd6,
        0xa2, 0xd6, 0xcf, 0xd4, 0xd5, 0xdf, 0xcf, 0xd6, 0xd2, 0xd6, 0xe2, 0xd2,
        0xd7, 0xd1, 0xd6, 0xc5, 0xdb, 0xd5, 0xd4, 0xdc, 0xd2, 0xd6, 0xd1, 0xd2,
        0xd5, 0xb6, 0xd3, 0xd4, 0xd4, 0xd6, 0xbf, 0xd0, 0xd3, 0xd5, 0xd4, 0xc9,
        0xd6, 0xde, 0xd7, 0xc9, 0x9a, 0xd0, 0xd0, 0xd0, 0xd1, 0xea, 0xd2, 0xcc,
        0xd1, 0xcf, 0xe5, 0xcd, 0xcf, 0xd2, 0xd0, 0xdb, 0xd1, 0xd5, 0xce, 0xd1,
        0xa4, 0xcd, 0xd4, 0xcf, 0xd0, 0x82, 0xd4, 0xd0, 0xd5, 0xcf, 0x82, 0xd2,
        0xd2, 0xd3, 0xd4, 0x90, 0xd2, 0xd5, 0xcf, 0xce, 0xf1, 0xd6, 0xd4, 0xd7,
        0xd9, 0xb2, 0xd3, 0xd1, 0xd5, 0xd2, 0xd0, 0xd0, 0xd3, 0xce, 0xd2, 0xe5,
        0xd0, 0xd7, 0xd4, 0xce, 0x34, 0xd3, 0xd2, 0xcd, 0xd0, 0xa9, 0xd1, 0xd1,
        0xd2, 0xcf, 0xd7, 0xd1, 0xd1, 0xd1, 0xd3, 0xc9, 0xd5, 0xce, 0xd6, 0xd2,
        0x22, 0xd2, 0xd2, 0xd1, 0xd2, 0xcb, 0xd0, 0xd1, 0xd0, 0xd0, 0xee, 0xd1,
        0xd1, 0xd0, 0xd2, 0xe6, 0xdc, 0xd5, 0xc6, 0xd5, 0xd3, 0xd0, 0xd1, 0xd4,
        0xd0, 0xbd, 0xcc, 0xd2, 0xd2, 0xce, 0xc7, 0xcf, 0xcf, 0xd4, 0xcf, 0xd3,
        0xd1, 0xd4, 0xd0, 0xd6, 0xca, 0xd2, 0xd4, 0xcf, 0xd9, 0xf1, 0xd6, 0xd2,
        0xd6, 0xcd, 0xca, 0xd3, 0xd6, 0xce, 0xce, 0xb6, 0xd2, 0xd3, 0xcf, 0xd1,
        0x00, 0xd3, 0xd0, 0xd2, 0xd3, 0x9d, 0xd1, 0xd1, 0xd1, 0xd3, 0xd3, 0xd0,
        0xd0, 0xd2, 0xd0, 0xd3, 0xd2, 0xd4, 0xd9, 0xd8, 0xdc, 0xd7, 0xd7, 0xd7,
        0xd2, 0xb6, 0xd7, 0xd2, 0xd2, 0xd1, 0xcc, 0xd7, 0xcb, 0xd6, 0xd2, 0xd5,
        0xa2, 0xff, 0xff, 0xff, 0x04, 0x00, 0x00, 0x00, 0x50, 0x00, 0x00, 0x00,
        0xfa, 0x03, 0x00, 0x00, 0x2d, 0xfe, 0xff, 0xff, 0xb5, 0x02, 0x00, 0x00,
        0xb5, 0xfd, 0xff, 0xff, 0xb2, 0xff, 0xff, 0xff, 0xcb, 0xff, 0xff, 0xff,
        0x94, 0x03, 0x00, 0x00, 0xd3, 0xff, 0xff, 0xff, 0x45, 0x04, 0x00, 0x00,
        0x96, 0x06, 0x00, 0x00, 0x2c, 0x07, 0x00, 0x00, 0xc0, 0x01, 0x00, 0x00,
        0x7f, 0x04, 0x00, 0x00, 0x1a, 0xff, 0xff, 0xff, 0xbd, 0x01, 0x00, 0x00,
        0x8b, 0x03, 0x00, 0x00, 0xfa, 0x02, 0x00, 0x00, 0x00, 0x04, 0x00, 0x00,
        0xd1, 0x03, 0x00, 0x00, 0x86, 0x05, 0x00, 0x00, 0x00, 0x00, 0x06, 0x00,
        0x08, 0x00, 0x04, 0x00, 0x06, 0x00, 0x00, 0x00, 0x04, 0x00, 0x00, 0x00,
        0x3c, 0x00, 0x00, 0x00, 0x1f, 0x71, 0x6f, 0x52, 0x67, 0x59, 0xf8, 0xff,
        0x42, 0x73, 0xd5, 0x78, 0x5b, 0x5c, 0xa4, 0x09, 0x4d, 0x00, 0xd1, 0xc2,
        0x90, 0x75, 0x78, 0x5c, 0x63, 0x5e, 0xc3, 0xb0, 0x3f, 0x60, 0xa2, 0x75,
        0x6f, 0x67, 0xba, 0x63, 0x60, 0x5a, 0xa3, 0x9c, 0xc4, 0x6f, 0x66, 0x5f,
        0x73, 0x62, 0xbf, 0x91, 0x00, 0x62, 0x89, 0x73, 0x53, 0x53, 0xc6, 0x75,
        0x53, 0x54, 0xab, 0xc3, 0xd8, 0xf9, 0xff, 0xff, 0x64, 0xfa, 0xff, 0xff,
        0x20, 0x00, 0x00, 0x00, 0x14, 0x00, 0x00, 0x00, 0x08, 0x00, 0x00, 0x00,
        0xd0, 0x05, 0x00, 0x00, 0x01, 0x00, 0x00, 0x00, 0x07, 0x00, 0x00, 0x00,
        0x01, 0x00, 0x00, 0x00, 0x00, 0x00, 0x00, 0x00, 0x0a, 0x00, 0x00, 0x00,
        0x48, 0x01, 0x00, 0x00, 0x24, 0x00, 0x00, 0x00, 0x30, 0x02, 0x00, 0x00,
        0x64, 0x04, 0x00, 0x00, 0xc4, 0x03, 0x00, 0x00, 0xa8, 0x01, 0x00, 0x00,
        0x90, 0x00, 0x00, 0x00, 0x20, 0x03, 0x00, 0x00, 0x9c, 0x02, 0x00, 0x00,
        0xe8, 0x04, 0x00, 0x00, 0x2a, 0xfb, 0xff, 0xff, 0x00, 0x00, 0x00, 0x03,
        0x10, 0x00, 0x00, 0x00, 0x0a, 0x00, 0x00, 0x00, 0x14, 0x00, 0x00, 0x00,
        0x34, 0x00, 0x00, 0x00, 0x02, 0x00, 0x00, 0x00, 0x01, 0x00, 0x00, 0x00,
        0x14, 0x00, 0x00, 0x00, 0x1d, 0x00, 0x00, 0x00, 0x64, 0x65, 0x65, 0x70,
        0x71, 0x2f, 0x6d, 0x6f, 0x64, 0x65, 0x6c, 0x2f, 0x61, 0x63, 0x74, 0x69,
        0x6f, 0x6e, 0x5f, 0x76, 0x61, 0x6c, 0x75, 0x65, 0x2f, 0x52, 0x65, 0x6c,
        0x75, 0x00, 0x00, 0x00, 0xfc, 0xfa, 0xff, 0xff, 0x2c, 0x00, 0x00, 0x00,
        0x20, 0x00, 0x00, 0x00, 0x14, 0x00, 0x00, 0x00, 0x04, 0x00, 0x00, 0x00,
        0x01, 0x00, 0x00, 0x00, 0x17, 0x00, 0x00, 0x00, 0x00, 0x00, 0x00, 0x00,
        0x01, 0x00, 0x00, 0x00, 0x92, 0x91, 0x71, 0x41, 0x01, 0x00, 0x00, 0x00,
        0xec, 0xeb, 0x5a, 0x45, 0x01, 0x00, 0x00, 0x00, 0xa1, 0xa0, 0xad, 0xc3,
        0xaa, 0xfb, 0xff, 0xff, 0x00, 0x00, 0x00, 0x03, 0x10, 0x00, 0x00, 0x00,
        0x09, 0x00, 0x00, 0x00, 0x14, 0x00, 0x00, 0x00, 0x54, 0x00, 0x00, 0x00,
        0x02, 0x00, 0x00, 0x00, 0x14, 0x00, 0x00, 0x00, 0x14, 0x00, 0x00, 0x00,
        0x3c, 0x00, 0x00, 0x00, 0x64, 0x65, 0x65, 0x70, 0x71, 0x2f, 0x6d, 0x6f,
        0x64, 0x65, 0x6c, 0x2f, 0x61, 0x63, 0x74, 0x69, 0x6f, 0x6e, 0x5f, 0x76,
        0x61, 0x6c, 0x75, 0x65, 0x2f, 0x66, 0x75, 0x6c, 0x6c, 0x79, 0x5f, 0x63,
        0x6f, 0x6e, 0x6e, 0x65, 0x63, 0x74, 0x65, 0x64, 0x5f, 0x31, 0x2f, 0x77,
        0x65, 0x69, 0x67, 0x68, 0x74, 0x73, 0x2f, 0x74, 0x72, 0x61, 0x6e, 0x73,
        0x70, 0x6f, 0x73, 0x65, 0x00, 0x00, 0x00, 0x00, 0x9c, 0xfb, 0xff, 0xff,
        0x2c, 0x00, 0x00, 0x00, 0x20, 0x00, 0x00, 0x00, 0x14, 0x00, 0x00, 0x00,
        0x04, 0x00, 0x00, 0x00, 0x01, 0x00, 0x00, 0x00, 0xbe, 0x00, 0x00, 0x00,
        0x00, 0x00, 0x00, 0x00, 0x01, 0x00, 0x00, 0x00, 0xad, 0x3e, 0x22, 0x3d,
        0x01, 0x00, 0x00, 0x00, 0x1b, 0xeb, 0x23, 0x40, 0x01, 0x00, 0x00, 0x00,
        0x50, 0x43, 0xf1, 0xc0, 0x4a, 0xfc, 0xff, 0xff, 0x00, 0x00, 0x00, 0x03,
        0x10, 0x00, 0x00, 0x00, 0x08, 0x00, 0x00, 0x00, 0x14, 0x00, 0x00, 0x00,
        0x24, 0x00, 0x00, 0x00, 0x02, 0x00, 0x00, 0x00, 0x01, 0x00, 0x00, 0x00,
        0x14, 0x00, 0x00, 0x00, 0x0e, 0x00, 0x00, 0x00, 0x64, 0x65, 0x65, 0x70,
        0x71, 0x2f, 0x69, 0x6e, 0x70, 0x75, 0x74, 0x2f, 0x4f, 0x62, 0x00, 0x00,
        0x0c, 0xfc, 0xff, 0xff, 0x30, 0x00, 0x00, 0x00, 0x24, 0x00, 0x00, 0x00,
        0x18, 0x00, 0x00, 0x00, 0x04, 0x00, 0x00, 0x00, 0x01, 0x00, 0x00, 0x00,
        0x00, 0x00, 0x00, 0x00, 0x00, 0x00, 0x00, 0x00, 0x00, 0x00, 0x00, 0x00,
        0x01, 0x00, 0x00, 0x00, 0xa1, 0xa0, 0xa0, 0x3c, 0x01, 0x00, 0x00, 0x00,
        0x00, 0x00, 0xa0, 0x40, 0x01, 0x00, 0x00, 0x00, 0x00, 0x00, 0x00, 0x00,
        0xbe, 0xfc, 0xff, 0xff, 0x00, 0x00, 0x00, 0x02, 0x10, 0x00, 0x00, 0x00,
        0x07, 0x00, 0x00, 0x00, 0x10, 0x00, 0x00, 0x00, 0x48, 0x00, 0x00, 0x00,
        0x01, 0x00, 0x00, 0x00, 0x14, 0x00, 0x00, 0x00, 0x36, 0x00, 0x00, 0x00,
        0x64, 0x65, 0x65, 0x70, 0x71, 0x2f, 0x6d, 0x6f, 0x64, 0x65, 0x6c, 0x2f,
        0x61, 0x63, 0x74, 0x69, 0x6f, 0x6e, 0x5f, 0x76, 0x61, 0x6c, 0x75, 0x65,
        0x2f, 0x66, 0x75, 0x6c, 0x6c, 0x79, 0x5f, 0x63, 0x6f, 0x6e, 0x6e, 0x65,
        0x63, 0x74, 0x65, 0x64, 0x5f, 0x31, 0x2f, 0x4d, 0x61, 0x74, 0x4d, 0x75,
        0x6c, 0x5f, 0x62, 0x69, 0x61, 0x73, 0x00, 0x00, 0x4c, 0xfd, 0xff, 0xff,
        0x14, 0x00, 0x00, 0x00, 0x04, 0x00, 0x00, 0x00, 0x01, 0x00, 0x00, 0x00,
        0x00, 0x00, 0x00, 0x00, 0x00, 0x00, 0x00, 0x00, 0x01, 0x00, 0x00, 0x00,
        0x43, 0x19, 0x19, 0x3f, 0x3a, 0xfd, 0xff, 0xff, 0x00, 0x00, 0x00, 0x03,
        0x10, 0x00, 0x00, 0x00, 0x06, 0x00, 0x00, 0x00, 0x14, 0x00, 0x00, 0x00,
        0x34, 0x00, 0x00, 0x00, 0x02, 0x00, 0x00, 0x00, 0x01, 0x00, 0x00, 0x00,
        0x14, 0x00, 0x00, 0x00, 0x1f, 0x00, 0x00, 0x00, 0x64, 0x65, 0x65, 0x70,
        0x71, 0x2f, 0x6d, 0x6f, 0x64, 0x65, 0x6c, 0x2f, 0x61, 0x63, 0x74, 0x69,
        0x6f, 0x6e, 0x5f, 0x76, 0x61, 0x6c, 0x75, 0x65, 0x2f, 0x52, 0x65, 0x6c,
        0x75, 0x5f, 0x31, 0x00, 0x0c, 0xfd, 0xff, 0xff, 0x30, 0x00, 0x00, 0x00,
        0x24, 0x00, 0x00, 0x00, 0x18, 0x00, 0x00, 0x00, 0x04, 0x00, 0x00, 0x00,
        0x01, 0x00, 0x00, 0x00, 0x17, 0x00, 0x00, 0x00, 0x00, 0x00, 0x00, 0x00,
        0x00, 0x00, 0x00, 0x00, 0x01, 0x00, 0x00, 0x00, 0x92, 0x91, 0x71, 0x41,
        0x01, 0x00, 0x00, 0x00, 0xec, 0xeb, 0x5a, 0x45, 0x01, 0x00, 0x00, 0x00,
        0xa1, 0xa0, 0xad, 0xc3, 0xbe, 0xfd, 0xff, 0xff, 0x00, 0x00, 0x00, 0x02,
        0x10, 0x00, 0x00, 0x00, 0x05, 0x00, 0x00, 0x00, 0x10, 0x00, 0x00, 0x00,
        0x48, 0x00, 0x00, 0x00, 0x01, 0x00, 0x00, 0x00, 0x03, 0x00, 0x00, 0x00,
        0x36, 0x00, 0x00, 0x00, 0x64, 0x65, 0x65, 0x70, 0x71, 0x2f, 0x6d, 0x6f,
        0x64, 0x65, 0x6c, 0x2f, 0x61, 0x63, 0x74, 0x69, 0x6f, 0x6e, 0x5f, 0x76,
        0x61, 0x6c, 0x75, 0x65, 0x2f, 0x66, 0x75, 0x6c, 0x6c, 0x79, 0x5f, 0x63,
        0x6f, 0x6e, 0x6e, 0x65, 0x63, 0x74, 0x65, 0x64, 0x5f, 0x32, 0x2f, 0x4d,
        0x61, 0x74, 0x4d, 0x75, 0x6c, 0x5f, 0x62, 0x69, 0x61, 0x73, 0x00, 0x00,
        0x4c, 0xfe, 0xff, 0xff, 0x18, 0x00, 0x00, 0x00, 0x04, 0x00, 0x00, 0x00,
        0x01, 0x00, 0x00, 0x00, 0x00, 0x00, 0x00, 0x00, 0x00, 0x00, 0x00, 0x00,
        0x00, 0x00, 0x00, 0x00, 0x01, 0x00, 0x00, 0x00, 0x61, 0xfb, 0x22, 0x3f,
        0x3e, 0xfe, 0xff, 0xff, 0x00, 0x00, 0x00, 0x03, 0x10, 0x00, 0x00, 0x00,
        0x04, 0x00, 0x00, 0x00, 0x14, 0x00, 0x00, 0x00, 0x48, 0x00, 0x00, 0x00,
        0x02, 0x00, 0x00, 0x00, 0x01, 0x00, 0x00, 0x00, 0x03, 0x00, 0x00, 0x00,
        0x32, 0x00, 0x00, 0x00, 0x64, 0x65, 0x65, 0x70, 0x71, 0x2f, 0x6d, 0x6f,
        0x64, 0x65, 0x6c, 0x2f, 0x61, 0x63, 0x74, 0x69, 0x6f, 0x6e, 0x5f, 0x76,
        0x61, 0x6c, 0x75, 0x65, 0x2f, 0x66, 0x75, 0x6c, 0x6c, 0x79, 0x5f, 0x63,
        0x6f, 0x6e, 0x6e, 0x65, 0x63, 0x74, 0x65, 0x64, 0x5f, 0x32, 0x2f, 0x42,
        0x69, 0x61, 0x73, 0x41, 0x64, 0x64, 0x00, 0x00, 0x24, 0xfe, 0xff, 0xff,
        0x30, 0x00, 0x00, 0x00, 0x24, 0x00, 0x00, 0x00, 0x18, 0x00, 0x00, 0x00,
        0x04, 0x00, 0x00, 0x00, 0x01, 0x00, 0x00, 0x00, 0x17, 0x00, 0x00, 0x00,
        0x00, 0x00, 0x00, 0x00, 0x00, 0x00, 0x00, 0x00, 0x01, 0x00, 0x00, 0x00,
        0x92, 0x91, 0x71, 0x41, 0x01, 0x00, 0x00, 0x00, 0xec, 0xeb, 0x5a, 0x45,
        0x01, 0x00, 0x00, 0x00, 0xa1, 0xa0, 0xad, 0xc3, 0xd6, 0xfe, 0xff, 0xff,
        0x00, 0x00, 0x00, 0x03, 0x10, 0x00, 0x00, 0x00, 0x03, 0x00, 0x00, 0x00,
        0x14, 0x00, 0x00, 0x00, 0x50, 0x00, 0x00, 0x00, 0x02, 0x00, 0x00, 0x00,
        0x14, 0x00, 0x00, 0x00, 0x14, 0x00, 0x00, 0x00, 0x3a, 0x00, 0x00, 0x00,
        0x64, 0x65, 0x65, 0x70, 0x71, 0x2f, 0x6d, 0x6f, 0x64, 0x65, 0x6c, 0x2f,
        0x61, 0x63, 0x74, 0x69, 0x6f, 0x6e, 0x5f, 0x76, 0x61, 0x6c, 0x75, 0x65,
        0x2f, 0x66, 0x75, 0x6c, 0x6c, 0x79, 0x5f, 0x63, 0x6f, 0x6e, 0x6e, 0x65,
        0x63, 0x74, 0x65, 0x64, 0x2f, 0x77, 0x65, 0x69, 0x67, 0x68, 0x74, 0x73,
        0x2f, 0x74, 0x72, 0x61, 0x6e, 0x73, 0x70, 0x6f, 0x73, 0x65, 0x00, 0x00,
        0xc4, 0xfe, 0xff, 0xff, 0x2c, 0x00, 0x00, 0x00, 0x20, 0x00, 0x00, 0x00,
        0x14, 0x00, 0x00, 0x00, 0x04, 0x00, 0x00, 0x00, 0x01, 0x00, 0x00, 0x00,
        0xd1, 0x00, 0x00, 0x00, 0x00, 0x00, 0x00, 0x00, 0x01, 0x00, 0x00, 0x00,
        0x67, 0xee, 0x91, 0x3d, 0x01, 0x00, 0x00, 0x00, 0xfc, 0x90, 0x51, 0x40,
        0x01, 0x00, 0x00, 0x00, 0xb3, 0x54, 0x6e, 0xc1, 0x72, 0xff, 0xff, 0xff,
        0x00, 0x00, 0x00, 0x02, 0x10, 0x00, 0x00, 0x00, 0x02, 0x00, 0x00, 0x00,
        0x10, 0x00, 0x00, 0x00, 0x54, 0x00, 0x00, 0x00, 0x01, 0x00, 0x00, 0x00,
        0x14, 0x00, 0x00, 0x00, 0x34, 0x00, 0x00, 0x00, 0x64, 0x65, 0x65, 0x70,
        0x71, 0x2f, 0x6d, 0x6f, 0x64, 0x65, 0x6c, 0x2f, 0x61, 0x63, 0x74, 0x69,
        0x6f, 0x6e, 0x5f, 0x76, 0x61, 0x6c, 0x75, 0x65, 0x2f, 0x66, 0x75, 0x6c,
        0x6c, 0x79, 0x5f, 0x63, 0x6f, 0x6e, 0x6e, 0x65, 0x63, 0x74, 0x65, 0x64,
        0x2f, 0x4d, 0x61, 0x74, 0x4d, 0x75, 0x6c, 0x5f, 0x62, 0x69, 0x61, 0x73,
        0x00, 0x00, 0x00, 0x00, 0x0c, 0x00, 0x0c, 0x00, 0x00, 0x00, 0x00, 0x00,
        0x04, 0x00, 0x08, 0x00, 0x0c, 0x00, 0x00, 0x00, 0x18, 0x00, 0x00, 0x00,
        0x04, 0x00, 0x00, 0x00, 0x01, 0x00, 0x00, 0x00, 0x00, 0x00, 0x00, 0x00,
        0x00, 0x00, 0x00, 0x00, 0x00, 0x00, 0x00, 0x00, 0x01, 0x00, 0x00, 0x00,
        0x22, 0x21, 0xb7, 0x3a, 0x00, 0x00, 0x0e, 0x00, 0x18, 0x00, 0x08, 0x00,
        0x07, 0x00, 0x0c, 0x00, 0x10, 0x00, 0x14, 0x00, 0x0e, 0x00, 0x00, 0x00,
        0x00, 0x00, 0x00, 0x03, 0x10, 0x00, 0x00, 0x00, 0x01, 0x00, 0x00, 0x00,
        0x14, 0x00, 0x00, 0x00, 0x60, 0x00, 0x00, 0x00, 0x02, 0x00, 0x00, 0x00,
        0x03, 0x00, 0x00, 0x00, 0x14, 0x00, 0x00, 0x00, 0x3c, 0x00, 0x00, 0x00,
        0x64, 0x65, 0x65, 0x70, 0x71, 0x2f, 0x6d, 0x6f, 0x64, 0x65, 0x6c, 0x2f,
        0x61, 0x63, 0x74, 0x69, 0x6f, 0x6e, 0x5f, 0x76, 0x61, 0x6c, 0x75, 0x65,
        0x2f, 0x66, 0x75, 0x6c, 0x6c, 0x79, 0x5f, 0x63, 0x6f, 0x6e, 0x6e, 0x65,
        0x63, 0x74, 0x65, 0x64, 0x5f, 0x32, 0x2f, 0x77, 0x65, 0x69, 0x67, 0x68,
        0x74, 0x73, 0x2f, 0x74, 0x72, 0x61, 0x6e, 0x73, 0x70, 0x6f, 0x73, 0x65,
        0x00, 0x00, 0x00, 0x00, 0x0c, 0x00, 0x14, 0x00, 0x04, 0x00, 0x08, 0x00,
        0x0c, 0x00, 0x10, 0x00, 0x0c, 0x00, 0x00, 0x00, 0x2c, 0x00, 0x00, 0x00,
        0x20, 0x00, 0x00, 0x00, 0x14, 0x00, 0x00, 0x00, 0x04, 0x00, 0x00, 0x00,
        0x01, 0x00, 0x00, 0x00, 0x6d, 0x00, 0x00, 0x00, 0x00, 0x00, 0x00, 0x00,
        0x01, 0x00, 0x00, 0x00, 0xf2, 0xb7, 0x2c, 0x3d, 0x01, 0x00, 0x00, 0x00,
        0x89, 0x58, 0xc5, 0x40, 0x01, 0x00, 0x00, 0x00, 0xeb, 0xbd, 0x92, 0xc0,
        0x03, 0x00, 0x00, 0x00, 0x98, 0x00, 0x00, 0x00, 0x44, 0x00, 0x00, 0x00,
        0x04, 0x00, 0x00, 0x00, 0x88, 0xff, 0xff, 0xff, 0x00, 0x00, 0x00, 0x08,
        0x10, 0x00, 0x00, 0x00, 0x1c, 0x00, 0x00, 0x00, 0x28, 0x00, 0x00, 0x00,
        0x1c, 0x00, 0x00, 0x00, 0x03, 0x00, 0x00, 0x00, 0x02, 0x00, 0x00, 0x00,
        0x09, 0x00, 0x00, 0x00, 0x08, 0x00, 0x00, 0x00, 0x01, 0x00, 0x00, 0x00,
        0x07, 0x00, 0x00, 0x00, 0x00, 0x00, 0x00, 0x00, 0x04, 0x00, 0x04, 0x00,
        0x04, 0x00, 0x00, 0x00, 0xc4, 0xff, 0xff, 0xff, 0x00, 0x00, 0x00, 0x08,
        0x10, 0x00, 0x00, 0x00, 0x1c, 0x00, 0x00, 0x00, 0x24, 0x00, 0x00, 0x00,
        0x1c, 0x00, 0x00, 0x00, 0x03, 0x00, 0x00, 0x00, 0x01, 0x00, 0x00, 0x00,
        0x06, 0x00, 0x00, 0x00, 0x05, 0x00, 0x00, 0x00, 0x01, 0x00, 0x00, 0x00,
        0x02, 0x00, 0x00, 0x00, 0x00, 0x00, 0x00, 0x00, 0x8e, 0xff, 0xff, 0xff,
        0x00, 0x00, 0x00, 0x01, 0x14, 0x00, 0x18, 0x00, 0x00, 0x00, 0x08, 0x00,
        0x0c, 0x00, 0x07, 0x00, 0x10, 0x00, 0x00, 0x00, 0x00, 0x00, 0x14, 0x00,
        0x14, 0x00, 0x00, 0x00, 0x00, 0x00, 0x00, 0x08, 0x10, 0x00, 0x00, 0x00,
        0x1c, 0x00, 0x00, 0x00, 0x24, 0x00, 0x00, 0x00, 0x1c, 0x00, 0x00, 0x00,
        0x03, 0x00, 0x00, 0x00, 0x00, 0x00, 0x00, 0x00, 0x04, 0x00, 0x00, 0x00,
        0x03, 0x00, 0x00, 0x00, 0x01, 0x00, 0x00, 0x00, 0x01, 0x00, 0x00, 0x00,
        0x00, 0x00, 0x00, 0x00, 0xde, 0xff, 0xff, 0xff, 0x00, 0x00, 0x00, 0x01,
        0x01, 0x00, 0x00, 0x00, 0x04, 0x00, 0x00, 0x00, 0xfa, 0xff, 0xff, 0xff,
        0x00, 0x09, 0x06, 0x00, 0x06, 0x00, 0x05, 0x00, 0x06, 0x00, 0x00, 0x00,
        0x00, 0x09, 0x06, 0x00, 0x08, 0x00, 0x07, 0x00, 0x06, 0x00, 0x00, 0x00,
        0x00, 0x00, 0x00, 0x09
};
unsigned int fc_320_tflite_len = 3016;