unsigned char fc_320_tflite[] = {
        0x18, 0x00, 0x00, 0x00, 0x54, 0x46, 0x4c, 0x33, 0x00, 0x00, 0x0e, 0x00,
        0x18, 0x00, 0x04, 0x00, 0x08, 0x00, 0x0c, 0x00, 0x10, 0x00, 0x14, 0x00,
        0x0e, 0x00, 0x00, 0x00, 0x03, 0x00, 0x00, 0x00, 0x80, 0x0b, 0x00, 0x00,
        0x0c, 0x00, 0x00, 0x00, 0x10, 0x00, 0x00, 0x00, 0x20, 0x00, 0x00, 0x00,
        0x01, 0x00, 0x00, 0x00, 0xb4, 0x04, 0x00, 0x00, 0x0f, 0x00, 0x00, 0x00,
        0x54, 0x4f, 0x43, 0x4f, 0x20, 0x43, 0x6f, 0x6e, 0x76, 0x65, 0x72, 0x74,
        0x65, 0x64, 0x2e, 0x00, 0x0b, 0x00, 0x00, 0x00, 0x94, 0x04, 0x00, 0x00,
        0x48, 0x04, 0x00, 0x00, 0xe0, 0x03, 0x00, 0x00, 0x40, 0x02, 0x00, 0x00,
        0x38, 0x02, 0x00, 0x00, 0x1c, 0x02, 0x00, 0x00, 0x14, 0x02, 0x00, 0x00,
        0xb4, 0x01, 0x00, 0x00, 0xac, 0x01, 0x00, 0x00, 0x0c, 0x00, 0x00, 0x00,
        0x04, 0x00, 0x00, 0x00, 0x70, 0xf5, 0xff, 0xff, 0xea, 0xfb, 0xff, 0xff,
        0x04, 0x00, 0x00, 0x00, 0x90, 0x01, 0x00, 0x00, 0x90, 0x75, 0xc7, 0x73,
        0xab, 0x8a, 0x42, 0xd7, 0xd5, 0x53, 0xde, 0xa6, 0x86, 0x6d, 0xb5, 0xd0,
        0x7b, 0x64, 0xd5, 0x4e, 0x52, 0xb8, 0x91, 0x82, 0xbe, 0xd0, 0xcb, 0xc6,
        0xc2, 0xe4, 0x6c, 0x85, 0xdb, 0xe2, 0xad, 0x9d, 0x54, 0x64, 0x54, 0xb6,
        0x6c, 0xe1, 0x61, 0x98, 0x68, 0x47, 0xa2, 0x44, 0xc5, 0xa7, 0x3e, 0xa7,
        0x78, 0x89, 0x7e, 0xac, 0xc2, 0xb6, 0xfd, 0xc4, 0x78, 0x60, 0x57, 0xc5,
        0xd8, 0x83, 0x91, 0x6e, 0x6b, 0x54, 0x5e, 0xa0, 0x93, 0x5c, 0x43, 0x6e,
        0x3d, 0xd1, 0xca, 0x5e, 0x67, 0x6f, 0xe3, 0x59, 0x87, 0xb8, 0xeb, 0x69,
        0x88, 0x92, 0x5c, 0xa7, 0x8d, 0xdf, 0x5c, 0x54, 0x5c, 0x50, 0x81, 0x64,
        0x5b, 0x7e, 0x81, 0x6a, 0x7e, 0xb9, 0xd0, 0x59, 0xc5, 0x47, 0x50, 0xcf,
        0xaa, 0xbf, 0x71, 0xaa, 0x7b, 0xb0, 0x88, 0xbf, 0x8c, 0x97, 0xed, 0x92,
        0x9b, 0x66, 0x6c, 0xcc, 0x54, 0x83, 0x53, 0x79, 0xb4, 0xc9, 0xd9, 0x9a,
        0x45, 0x8e, 0xd7, 0x55, 0xaa, 0x7f, 0x5e, 0x89, 0xa7, 0x8f, 0x70, 0xe3,
        0xad, 0xd6, 0x8a, 0x57, 0x7a, 0x76, 0xa1, 0x54, 0x47, 0xb9, 0x44, 0x8c,
        0xe5, 0xb8, 0xd5, 0xf2, 0x43, 0x5d, 0x4e, 0x5e, 0x67, 0x9a, 0x7a, 0xe8,
        0x5e, 0x4f, 0xe5, 0xd6, 0x9d, 0xc3, 0xb8, 0x53, 0xd3, 0x6c, 0xdf, 0x93,
        0x49, 0x9c, 0xd5, 0x51, 0xe9, 0x7e, 0xb4, 0xad, 0x9b, 0xa0, 0x7a, 0xb8,
        0xff, 0x9c, 0x8c, 0x79, 0xb2, 0xa2, 0xeb, 0xca, 0x93, 0x99, 0x8b, 0xda,
        0x83, 0x65, 0xe3, 0xa8, 0xc1, 0xcc, 0x8e, 0xb6, 0x6e, 0x80, 0x57, 0x63,
        0xc0, 0x86, 0xb6, 0x89, 0x86, 0x5d, 0xe0, 0x5c, 0xda, 0x6a, 0xbd, 0xe7,
        0x64, 0xf7, 0x78, 0xf1, 0xd6, 0xa0, 0xce, 0xc1, 0xc7, 0xbb, 0xc2, 0xdc,
        0x84, 0xe3, 0x49, 0x62, 0x5f, 0xb9, 0x8d, 0xbd, 0xd5, 0x52, 0xaa, 0xbb,
        0x74, 0xc9, 0x3b, 0xe1, 0xda, 0xd6, 0xae, 0xe5, 0x5e, 0x5a, 0xb3, 0xc7,
        0xc6, 0xa7, 0x89, 0xa5, 0x7e, 0xcd, 0xd2, 0xc5, 0x67, 0xd4, 0xc0, 0xde,
        0x56, 0x7d, 0xaa, 0xa5, 0x97, 0xdb, 0x63, 0xb9, 0xb8, 0xcd, 0xda, 0xb3,
        0xde, 0xa4, 0x87, 0x5d, 0x5b, 0xbd, 0x8f, 0x81, 0xa2, 0xbe, 0xdc, 0xb8,
        0xac, 0xad, 0x86, 0xbc, 0xdb, 0x00, 0x54, 0xb9, 0xa4, 0x5a, 0x4c, 0x6d,
        0x47, 0xa8, 0xaf, 0x98, 0x51, 0xc9, 0x73, 0x83, 0x5a, 0x7a, 0x83, 0xe3,
        0xe6, 0x76, 0x82, 0xa8, 0xb1, 0x5b, 0x4b, 0xde, 0x7d, 0xc1, 0x60, 0x83,
        0x6b, 0x6b, 0x71, 0x7c, 0x99, 0xa9, 0xc4, 0x42, 0xe9, 0x52, 0x80, 0xc3,
        0x85, 0x69, 0x3d, 0x94, 0xf8, 0x87, 0xeb, 0x6f, 0x55, 0xb4, 0xcf, 0xe4,
        0x5c, 0xbd, 0x80, 0x4c, 0xb6, 0xda, 0x6b, 0x9e, 0xfa, 0x6e, 0xa0, 0x4d,
        0xbe, 0xf1, 0xb3, 0xb1, 0xe9, 0xa6, 0x4e, 0x37, 0x95, 0x8a, 0x66, 0xb1,
        0xb4, 0x70, 0xd5, 0x92, 0xe5, 0x43, 0xce, 0xc4, 0xa4, 0xaf, 0xad, 0x37,
        0x10, 0xf7, 0xff, 0xff, 0x8a, 0xfd, 0xff, 0xff, 0x04, 0x00, 0x00, 0x00,
        0x50, 0x00, 0x00, 0x00, 0xee, 0x00, 0x00, 0x00, 0x66, 0xff, 0xff, 0xff,
        0x43, 0xff, 0xff, 0xff, 0x9e, 0xff, 0xff, 0xff, 0x00, 0x00, 0x00, 0x00,
        0xf3, 0xff, 0xff, 0xff, 0x01, 0x00, 0x00, 0x00, 0x00, 0x00, 0x00, 0x00,
        0xfa, 0x00, 0x00, 0x00, 0xe5, 0x00, 0x00, 0x00, 0xd3, 0xff, 0xff, 0xff,
        0xb0, 0xff, 0xff, 0xff, 0x6a, 0xff, 0xff, 0xff, 0x8b, 0xff, 0xff, 0xff,
        0xcf, 0x00, 0x00, 0x00, 0x06, 0x00, 0x00, 0x00, 0xbe, 0xff, 0xff, 0xff,
        0xf9, 0x00, 0x00, 0x00, 0x1c, 0x01, 0x00, 0x00, 0xab, 0x01, 0x00, 0x00,
        0x70, 0xf7, 0xff, 0xff, 0xea, 0xfd, 0xff, 0xff, 0x04, 0x00, 0x00, 0x00,
        0x0c, 0x00, 0x00, 0x00, 0x6c, 0xfe, 0xff, 0xff, 0x55, 0xff, 0xff, 0xff,
        0x92, 0xff, 0xff, 0xff, 0x8c, 0xf7, 0xff, 0xff, 0x06, 0xfe, 0xff, 0xff,
        0x04, 0x00, 0x00, 0x00, 0x90, 0x01, 0x00, 0x00, 0xe3, 0x8b, 0xd1, 0x80,
        0x35, 0xc8, 0xb8, 0x0b, 0xc0, 0xa3, 0x74, 0x88, 0x11, 0x3f, 0x81, 0x3b,
        0x5f, 0x45, 0x56, 0xaa, 0x37, 0x7d, 0xac, 0xb2, 0x54, 0xc6, 0x40, 0x59,
        0x42, 0x70, 0x1a, 0x1d, 0xbb, 0x36, 0x1e, 0xd1, 0xb2, 0x48, 0xdc, 0x1f,
        0x29, 0x65, 0x4f, 0x9e, 0x5d, 0x90, 0xae, 0x92, 0x89, 0x4a, 0x37, 0x39,
        0x5e, 0xab, 0xac, 0x9b, 0x49, 0xbc, 0x2b, 0x4e, 0xb9, 0xa6, 0x7e, 0xa9,
        0x5e, 0xcf, 0x81, 0x63, 0x62, 0xab, 0x0a, 0x82, 0x9d, 0x45, 0x56, 0x85,
        0x67, 0x41, 0x70, 0x5d, 0x43, 0xb3, 0x12, 0x47, 0x1e, 0x87, 0x95, 0x58,
        0x1c, 0x45, 0xd5, 0x33, 0xc8, 0xa1, 0x75, 0x8b, 0x56, 0x88, 0x4c, 0x98,
        0x3b, 0xcf, 0x3e, 0x50, 0xd0, 0x71, 0x83, 0x4d, 0xc2, 0xe6, 0x47, 0xc8,
        0xa3, 0x0a, 0x21, 0xd7, 0xb1, 0x79, 0xb4, 0xbb, 0x2b, 0xc8, 0x3e, 0x8a,
        0xa7, 0x50, 0x72, 0x2e, 0x4f, 0x4b, 0xc4, 0x34, 0x23, 0x38, 0x36, 0x9e,
        0x2e, 0x60, 0x3b, 0x78, 0x64, 0x1e, 0x26, 0x72, 0x31, 0x3b, 0xd3, 0x38,
        0x7b, 0x91, 0x9c, 0x21, 0xdf, 0x71, 0xb0, 0xb5, 0xb2, 0x3d, 0xa0, 0x4e,
        0xb7, 0x8c, 0x56, 0x99, 0x9b, 0xeb, 0x92, 0xb8, 0x26, 0xd0, 0xe4, 0x6b,
        0xa3, 0x83, 0x82, 0xce, 0x86, 0x3f, 0x2b, 0x92, 0xa9, 0x23, 0x28, 0xcb,
        0xae, 0x53, 0xd3, 0x8a, 0x8b, 0x15, 0x81, 0x88, 0xb1, 0x49, 0x82, 0xda,
        0x74, 0x99, 0x34, 0x8d, 0xbd, 0x58, 0xe2, 0xe2, 0xf6, 0x59, 0x45, 0xc9,
        0xc5, 0xbc, 0xb6, 0x50, 0x89, 0x9f, 0xc4, 0x78, 0x4e, 0x38, 0xb7, 0x7f,
        0x76, 0xb9, 0x2d, 0x9b, 0x3b, 0x89, 0xc1, 0x75, 0xd0, 0x2e, 0xe4, 0xb5,
        0xdc, 0x21, 0x73, 0xd8, 0x9b, 0x7b, 0xa2, 0xbb, 0x6c, 0x1f, 0xa8, 0xce,
        0x22, 0x4a, 0xc5, 0x13, 0x76, 0xc3, 0x1a, 0xd0, 0x95, 0x13, 0x6a, 0x32,
        0xd0, 0xc4, 0x7b, 0x47, 0xa0, 0xe1, 0x99, 0x21, 0x30, 0x89, 0x43, 0x63,
        0x0c, 0x68, 0xb2, 0xb1, 0xd9, 0x93, 0xa3, 0x00, 0xbb, 0x96, 0xa8, 0x73,
        0x65, 0x5c, 0x3f, 0x2c, 0xe3, 0x9b, 0x45, 0x86, 0x7c, 0xbf, 0x1c, 0x38,
        0x3b, 0xbe, 0xdf, 0x5b, 0x43, 0x1b, 0x2b, 0x3e, 0x5b, 0x7e, 0x74, 0x63,
        0xa5, 0x1c, 0x9f, 0xbe, 0x51, 0x8a, 0x14, 0x9c, 0xab, 0x43, 0xb3, 0x67,
        0x73, 0x7f, 0xdd, 0x7a, 0xc8, 0x50, 0xd9, 0x42, 0xd7, 0x51, 0x94, 0x81,
        0xe6, 0xe3, 0x54, 0xaf, 0x33, 0xbe, 0x4d, 0x3a, 0x85, 0x93, 0x76, 0x65,
        0x55, 0xe1, 0x7b, 0x93, 0x30, 0x70, 0xab, 0xc5, 0x22, 0x37, 0xa7, 0x9b,
        0x49, 0x92, 0xbb, 0xce, 0x60, 0xa2, 0x8a, 0x8e, 0x76, 0xc3, 0x94, 0xe2,
        0xa8, 0x5c, 0x75, 0x9a, 0x97, 0x48, 0x33, 0xca, 0xdf, 0x8e, 0x57, 0x77,
        0x51, 0xbd, 0x8a, 0x9f, 0x2c, 0xff, 0x6e, 0x0f, 0xc5, 0xb3, 0x9a, 0x3b,
        0x10, 0x9f, 0x57, 0x85, 0xc0, 0x3d, 0xa5, 0xbc, 0x57, 0x36, 0xc4, 0xa0,
        0xa2, 0xff, 0xff, 0xff, 0x04, 0x00, 0x00, 0x00, 0x50, 0x00, 0x00, 0x00,
        0xc3, 0xfd, 0xff, 0xff, 0x00, 0x00, 0x00, 0x00, 0x00, 0x00, 0x00, 0x00,
        0x3b, 0xfe, 0xff, 0xff, 0xb3, 0xfe, 0xff, 0xff, 0x63, 0x02, 0x00, 0x00,
        0x00, 0x00, 0x00, 0x00, 0x00, 0x00, 0x00, 0x00, 0xa1, 0x05, 0x00, 0x00,
        0xfc, 0xff, 0xff, 0xff, 0x95, 0x04, 0x00, 0x00, 0x9a, 0xfe, 0xff, 0xff,
        0x4e, 0xfe, 0xff, 0xff, 0x13, 0xfb, 0xff, 0xff, 0xfc, 0x00, 0x00, 0x00,
        0x9d, 0xfe, 0xff, 0xff, 0xa7, 0x02, 0x00, 0x00, 0x23, 0xfe, 0xff, 0xff,
        0x1e, 0x05, 0x00, 0x00, 0x5b, 0xfc, 0xff, 0xff, 0x00, 0x00, 0x06, 0x00,
        0x08, 0x00, 0x04, 0x00, 0x06, 0x00, 0x00, 0x00, 0x04, 0x00, 0x00, 0x00,
        0x3c, 0x00, 0x00, 0x00, 0x65, 0x4c, 0xa7, 0xb3, 0x0a, 0xbd, 0x3f, 0xd1,
        0xc9, 0x4e, 0xaa, 0x59, 0xd5, 0xcd, 0x24, 0x7b, 0xbb, 0x9a, 0x1e, 0x2a,
        0x59, 0x19, 0x93, 0x99, 0xe4, 0xff, 0x95, 0x16, 0xe2, 0x82, 0x02, 0x88,
        0x74, 0x86, 0x65, 0x93, 0x78, 0x00, 0x1d, 0x61, 0x35, 0x94, 0xc1, 0xd0,
        0x85, 0x7d, 0x43, 0x76, 0xc8, 0x60, 0x81, 0xe3, 0x7f, 0x20, 0x1d, 0xc7,
        0xc9, 0x0b, 0x7f, 0x35, 0xd8, 0xf9, 0xff, 0xff, 0x64, 0xfa, 0xff, 0xff,
        0x20, 0x00, 0x00, 0x00, 0x14, 0x00, 0x00, 0x00, 0x08, 0x00, 0x00, 0x00,
        0xd0, 0x05, 0x00, 0x00, 0x01, 0x00, 0x00, 0x00, 0x07, 0x00, 0x00, 0x00,
        0x01, 0x00, 0x00, 0x00, 0x00, 0x00, 0x00, 0x00, 0x0a, 0x00, 0x00, 0x00,
        0x48, 0x01, 0x00, 0x00, 0x24, 0x00, 0x00, 0x00, 0x30, 0x02, 0x00, 0x00,
        0x64, 0x04, 0x00, 0x00, 0xc4, 0x03, 0x00, 0x00, 0xa8, 0x01, 0x00, 0x00,
        0x90, 0x00, 0x00, 0x00, 0x20, 0x03, 0x00, 0x00, 0x9c, 0x02, 0x00, 0x00,
        0xe8, 0x04, 0x00, 0x00, 0x2a, 0xfb, 0xff, 0xff, 0x00, 0x00, 0x00, 0x03,
        0x10, 0x00, 0x00, 0x00, 0x0a, 0x00, 0x00, 0x00, 0x14, 0x00, 0x00, 0x00,
        0x34, 0x00, 0x00, 0x00, 0x02, 0x00, 0x00, 0x00, 0x01, 0x00, 0x00, 0x00,
        0x14, 0x00, 0x00, 0x00, 0x1d, 0x00, 0x00, 0x00, 0x64, 0x65, 0x65, 0x70,
        0x71, 0x2f, 0x6d, 0x6f, 0x64, 0x65, 0x6c, 0x2f, 0x61, 0x63, 0x74, 0x69,
        0x6f, 0x6e, 0x5f, 0x76, 0x61, 0x6c, 0x75, 0x65, 0x2f, 0x52, 0x65, 0x6c,
        0x75, 0x00, 0x00, 0x00, 0xfc, 0xfa, 0xff, 0xff, 0x2c, 0x00, 0x00, 0x00,
        0x20, 0x00, 0x00, 0x00, 0x14, 0x00, 0x00, 0x00, 0x04, 0x00, 0x00, 0x00,
        0x01, 0x00, 0x00, 0x00, 0x81, 0x00, 0x00, 0x00, 0x00, 0x00, 0x00, 0x00,
        0x01, 0x00, 0x00, 0x00, 0x80, 0x19, 0xb3, 0x3d, 0x01, 0x00, 0x00, 0x00,
        0x1a, 0x4d, 0x30, 0x41, 0x01, 0x00, 0x00, 0x00, 0xb3, 0x7f, 0x34, 0xc1,
        0xaa, 0xfb, 0xff, 0xff, 0x00, 0x00, 0x00, 0x03, 0x10, 0x00, 0x00, 0x00,
        0x09, 0x00, 0x00, 0x00, 0x14, 0x00, 0x00, 0x00, 0x54, 0x00, 0x00, 0x00,
        0x02, 0x00, 0x00, 0x00, 0x14, 0x00, 0x00, 0x00, 0x14, 0x00, 0x00, 0x00,
        0x3c, 0x00, 0x00, 0x00, 0x64, 0x65, 0x65, 0x70, 0x71, 0x2f, 0x6d, 0x6f,
        0x64, 0x65, 0x6c, 0x2f, 0x61, 0x63, 0x74, 0x69, 0x6f, 0x6e, 0x5f, 0x76,
        0x61, 0x6c, 0x75, 0x65, 0x2f, 0x66, 0x75, 0x6c, 0x6c, 0x79, 0x5f, 0x63,
        0x6f, 0x6e, 0x6e, 0x65, 0x63, 0x74, 0x65, 0x64, 0x5f, 0x31, 0x2f, 0x77,
        0x65, 0x69, 0x67, 0x68, 0x74, 0x73, 0x2f, 0x74, 0x72, 0x61, 0x6e, 0x73,
        0x70, 0x6f, 0x73, 0x65, 0x00, 0x00, 0x00, 0x00, 0x9c, 0xfb, 0xff, 0xff,
        0x2c, 0x00, 0x00, 0x00, 0x20, 0x00, 0x00, 0x00, 0x14, 0x00, 0x00, 0x00,
        0x04, 0x00, 0x00, 0x00, 0x01, 0x00, 0x00, 0x00, 0x97, 0x00, 0x00, 0x00,
        0x00, 0x00, 0x00, 0x00, 0x01, 0x00, 0x00, 0x00, 0x5a, 0x08, 0x92, 0x3b,
        0x01, 0x00, 0x00, 0x00, 0xa5, 0x0d, 0xee, 0x3e, 0x01, 0x00, 0x00, 0x00,
        0xd1, 0xe5, 0x2b, 0xbf, 0x4a, 0xfc, 0xff, 0xff, 0x00, 0x00, 0x00, 0x03,
        0x10, 0x00, 0x00, 0x00, 0x08, 0x00, 0x00, 0x00, 0x14, 0x00, 0x00, 0x00,
        0x24, 0x00, 0x00, 0x00, 0x02, 0x00, 0x00, 0x00, 0x01, 0x00, 0x00, 0x00,
        0x14, 0x00, 0x00, 0x00, 0x0e, 0x00, 0x00, 0x00, 0x64, 0x65, 0x65, 0x70,
        0x71, 0x2f, 0x69, 0x6e, 0x70, 0x75, 0x74, 0x2f, 0x4f, 0x62, 0x00, 0x00,
        0x0c, 0xfc, 0xff, 0xff, 0x30, 0x00, 0x00, 0x00, 0x24, 0x00, 0x00, 0x00,
        0x18, 0x00, 0x00, 0x00, 0x04, 0x00, 0x00, 0x00, 0x01, 0x00, 0x00, 0x00,
        0x00, 0x00, 0x00, 0x00, 0x00, 0x00, 0x00, 0x00, 0x00, 0x00, 0x00, 0x00,
        0x01, 0x00, 0x00, 0x00, 0xa1, 0xa0, 0xa0, 0x3c, 0x01, 0x00, 0x00, 0x00,
        0x00, 0x00, 0xa0, 0x40, 0x01, 0x00, 0x00, 0x00, 0x00, 0x00, 0x00, 0x00,
        0xbe, 0xfc, 0xff, 0xff, 0x00, 0x00, 0x00, 0x02, 0x10, 0x00, 0x00, 0x00,
        0x07, 0x00, 0x00, 0x00, 0x10, 0x00, 0x00, 0x00, 0x48, 0x00, 0x00, 0x00,
        0x01, 0x00, 0x00, 0x00, 0x14, 0x00, 0x00, 0x00, 0x36, 0x00, 0x00, 0x00,
        0x64, 0x65, 0x65, 0x70, 0x71, 0x2f, 0x6d, 0x6f, 0x64, 0x65, 0x6c, 0x2f,
        0x61, 0x63, 0x74, 0x69, 0x6f, 0x6e, 0x5f, 0x76, 0x61, 0x6c, 0x75, 0x65,
        0x2f, 0x66, 0x75, 0x6c, 0x6c, 0x79, 0x5f, 0x63, 0x6f, 0x6e, 0x6e, 0x65,
        0x63, 0x74, 0x65, 0x64, 0x5f, 0x31, 0x2f, 0x4d, 0x61, 0x74, 0x4d, 0x75,
        0x6c, 0x5f, 0x62, 0x69, 0x61, 0x73, 0x00, 0x00, 0x4c, 0xfd, 0xff, 0xff,
        0x14, 0x00, 0x00, 0x00, 0x04, 0x00, 0x00, 0x00, 0x01, 0x00, 0x00, 0x00,
        0x00, 0x00, 0x00, 0x00, 0x00, 0x00, 0x00, 0x00, 0x01, 0x00, 0x00, 0x00,
        0xc6, 0x54, 0xcc, 0x39, 0x3a, 0xfd, 0xff, 0xff, 0x00, 0x00, 0x00, 0x03,
        0x10, 0x00, 0x00, 0x00, 0x06, 0x00, 0x00, 0x00, 0x14, 0x00, 0x00, 0x00,
        0x34, 0x00, 0x00, 0x00, 0x02, 0x00, 0x00, 0x00, 0x01, 0x00, 0x00, 0x00,
        0x14, 0x00, 0x00, 0x00, 0x1f, 0x00, 0x00, 0x00, 0x64, 0x65, 0x65, 0x70,
        0x71, 0x2f, 0x6d, 0x6f, 0x64, 0x65, 0x6c, 0x2f, 0x61, 0x63, 0x74, 0x69,
        0x6f, 0x6e, 0x5f, 0x76, 0x61, 0x6c, 0x75, 0x65, 0x2f, 0x52, 0x65, 0x6c,
        0x75, 0x5f, 0x31, 0x00, 0x0c, 0xfd, 0xff, 0xff, 0x30, 0x00, 0x00, 0x00,
        0x24, 0x00, 0x00, 0x00, 0x18, 0x00, 0x00, 0x00, 0x04, 0x00, 0x00, 0x00,
        0x01, 0x00, 0x00, 0x00, 0x81, 0x00, 0x00, 0x00, 0x00, 0x00, 0x00, 0x00,
        0x00, 0x00, 0x00, 0x00, 0x01, 0x00, 0x00, 0x00, 0x80, 0x19, 0xb3, 0x3d,
        0x01, 0x00, 0x00, 0x00, 0x1a, 0x4d, 0x30, 0x41, 0x01, 0x00, 0x00, 0x00,
        0xb3, 0x7f, 0x34, 0xc1, 0xbe, 0xfd, 0xff, 0xff, 0x00, 0x00, 0x00, 0x02,
        0x10, 0x00, 0x00, 0x00, 0x05, 0x00, 0x00, 0x00, 0x10, 0x00, 0x00, 0x00,
        0x48, 0x00, 0x00, 0x00, 0x01, 0x00, 0x00, 0x00, 0x03, 0x00, 0x00, 0x00,
        0x36, 0x00, 0x00, 0x00, 0x64, 0x65, 0x65, 0x70, 0x71, 0x2f, 0x6d, 0x6f,
        0x64, 0x65, 0x6c, 0x2f, 0x61, 0x63, 0x74, 0x69, 0x6f, 0x6e, 0x5f, 0x76,
        0x61, 0x6c, 0x75, 0x65, 0x2f, 0x66, 0x75, 0x6c, 0x6c, 0x79, 0x5f, 0x63,
        0x6f, 0x6e, 0x6e, 0x65, 0x63, 0x74, 0x65, 0x64, 0x5f, 0x32, 0x2f, 0x4d,
        0x61, 0x74, 0x4d, 0x75, 0x6c, 0x5f, 0x62, 0x69, 0x61, 0x73, 0x00, 0x00,
        0x4c, 0xfe, 0xff, 0xff, 0x18, 0x00, 0x00, 0x00, 0x04, 0x00, 0x00, 0x00,
        0x01, 0x00, 0x00, 0x00, 0x00, 0x00, 0x00, 0x00, 0x00, 0x00, 0x00, 0x00,
        0x00, 0x00, 0x00, 0x00, 0x01, 0x00, 0x00, 0x00, 0x1a, 0x0b, 0xb6, 0x39,
        0x3e, 0xfe, 0xff, 0xff, 0x00, 0x00, 0x00, 0x03, 0x10, 0x00, 0x00, 0x00,
        0x04, 0x00, 0x00, 0x00, 0x14, 0x00, 0x00, 0x00, 0x48, 0x00, 0x00, 0x00,
        0x02, 0x00, 0x00, 0x00, 0x01, 0x00, 0x00, 0x00, 0x03, 0x00, 0x00, 0x00,
        0x32, 0x00, 0x00, 0x00, 0x64, 0x65, 0x65, 0x70, 0x71, 0x2f, 0x6d, 0x6f,
        0x64, 0x65, 0x6c, 0x2f, 0x61, 0x63, 0x74, 0x69, 0x6f, 0x6e, 0x5f, 0x76,
        0x61, 0x6c, 0x75, 0x65, 0x2f, 0x66, 0x75, 0x6c, 0x6c, 0x79, 0x5f, 0x63,
        0x6f, 0x6e, 0x6e, 0x65, 0x63, 0x74, 0x65, 0x64, 0x5f, 0x32, 0x2f, 0x42,
        0x69, 0x61, 0x73, 0x41, 0x64, 0x64, 0x00, 0x00, 0x24, 0xfe, 0xff, 0xff,
        0x30, 0x00, 0x00, 0x00, 0x24, 0x00, 0x00, 0x00, 0x18, 0x00, 0x00, 0x00,
        0x04, 0x00, 0x00, 0x00, 0x01, 0x00, 0x00, 0x00, 0x81, 0x00, 0x00, 0x00,
        0x00, 0x00, 0x00, 0x00, 0x00, 0x00, 0x00, 0x00, 0x01, 0x00, 0x00, 0x00,
        0x80, 0x19, 0xb3, 0x3d, 0x01, 0x00, 0x00, 0x00, 0x1a, 0x4d, 0x30, 0x41,
        0x01, 0x00, 0x00, 0x00, 0xb3, 0x7f, 0x34, 0xc1, 0xd6, 0xfe, 0xff, 0xff,
        0x00, 0x00, 0x00, 0x03, 0x10, 0x00, 0x00, 0x00, 0x03, 0x00, 0x00, 0x00,
        0x14, 0x00, 0x00, 0x00, 0x50, 0x00, 0x00, 0x00, 0x02, 0x00, 0x00, 0x00,
        0x14, 0x00, 0x00, 0x00, 0x14, 0x00, 0x00, 0x00, 0x3a, 0x00, 0x00, 0x00,
        0x64, 0x65, 0x65, 0x70, 0x71, 0x2f, 0x6d, 0x6f, 0x64, 0x65, 0x6c, 0x2f,
        0x61, 0x63, 0x74, 0x69, 0x6f, 0x6e, 0x5f, 0x76, 0x61, 0x6c, 0x75, 0x65,
        0x2f, 0x66, 0x75, 0x6c, 0x6c, 0x79, 0x5f, 0x63, 0x6f, 0x6e, 0x6e, 0x65,
        0x63, 0x74, 0x65, 0x64, 0x2f, 0x77, 0x65, 0x69, 0x67, 0x68, 0x74, 0x73,
        0x2f, 0x74, 0x72, 0x61, 0x6e, 0x73, 0x70, 0x6f, 0x73, 0x65, 0x00, 0x00,
        0xc4, 0xfe, 0xff, 0xff, 0x2c, 0x00, 0x00, 0x00, 0x20, 0x00, 0x00, 0x00,
        0x14, 0x00, 0x00, 0x00, 0x04, 0x00, 0x00, 0x00, 0x01, 0x00, 0x00, 0x00,
        0x7e, 0x00, 0x00, 0x00, 0x00, 0x00, 0x00, 0x00, 0x01, 0x00, 0x00, 0x00,
        0x13, 0x66, 0x73, 0x3b, 0x01, 0x00, 0x00, 0x00, 0xb8, 0xee, 0xf5, 0x3e,
        0x01, 0x00, 0x00, 0x00, 0xa1, 0xf6, 0xee, 0xbe, 0x72, 0xff, 0xff, 0xff,
        0x00, 0x00, 0x00, 0x02, 0x10, 0x00, 0x00, 0x00, 0x02, 0x00, 0x00, 0x00,
        0x10, 0x00, 0x00, 0x00, 0x54, 0x00, 0x00, 0x00, 0x01, 0x00, 0x00, 0x00,
        0x14, 0x00, 0x00, 0x00, 0x34, 0x00, 0x00, 0x00, 0x64, 0x65, 0x65, 0x70,
        0x71, 0x2f, 0x6d, 0x6f, 0x64, 0x65, 0x6c, 0x2f, 0x61, 0x63, 0x74, 0x69,
        0x6f, 0x6e, 0x5f, 0x76, 0x61, 0x6c, 0x75, 0x65, 0x2f, 0x66, 0x75, 0x6c,
        0x6c, 0x79, 0x5f, 0x63, 0x6f, 0x6e, 0x6e, 0x65, 0x63, 0x74, 0x65, 0x64,
        0x2f, 0x4d, 0x61, 0x74, 0x4d, 0x75, 0x6c, 0x5f, 0x62, 0x69, 0x61, 0x73,
        0x00, 0x00, 0x00, 0x00, 0x0c, 0x00, 0x0c, 0x00, 0x00, 0x00, 0x00, 0x00,
        0x04, 0x00, 0x08, 0x00, 0x0c, 0x00, 0x00, 0x00, 0x18, 0x00, 0x00, 0x00,
        0x04, 0x00, 0x00, 0x00, 0x01, 0x00, 0x00, 0x00, 0x00, 0x00, 0x00, 0x00,
        0x00, 0x00, 0x00, 0x00, 0x00, 0x00, 0x00, 0x00, 0x01, 0x00, 0x00, 0x00,
        0x84, 0xb8, 0x98, 0x38, 0x00, 0x00, 0x0e, 0x00, 0x18, 0x00, 0x08, 0x00,
        0x07, 0x00, 0x0c, 0x00, 0x10, 0x00, 0x14, 0x00, 0x0e, 0x00, 0x00, 0x00,
        0x00, 0x00, 0x00, 0x03, 0x10, 0x00, 0x00, 0x00, 0x01, 0x00, 0x00, 0x00,
        0x14, 0x00, 0x00, 0x00, 0x60, 0x00, 0x00, 0x00, 0x02, 0x00, 0x00, 0x00,
        0x03, 0x00, 0x00, 0x00, 0x14, 0x00, 0x00, 0x00, 0x3c, 0x00, 0x00, 0x00,
        0x64, 0x65, 0x65, 0x70, 0x71, 0x2f, 0x6d, 0x6f, 0x64, 0x65, 0x6c, 0x2f,
        0x61, 0x63, 0x74, 0x69, 0x6f, 0x6e, 0x5f, 0x76, 0x61, 0x6c, 0x75, 0x65,
        0x2f, 0x66, 0x75, 0x6c, 0x6c, 0x79, 0x5f, 0x63, 0x6f, 0x6e, 0x6e, 0x65,
        0x63, 0x74, 0x65, 0x64, 0x5f, 0x32, 0x2f, 0x77, 0x65, 0x69, 0x67, 0x68,
        0x74, 0x73, 0x2f, 0x74, 0x72, 0x61, 0x6e, 0x73, 0x70, 0x6f, 0x73, 0x65,
        0x00, 0x00, 0x00, 0x00, 0x0c, 0x00, 0x14, 0x00, 0x04, 0x00, 0x08, 0x00,
        0x0c, 0x00, 0x10, 0x00, 0x0c, 0x00, 0x00, 0x00, 0x2c, 0x00, 0x00, 0x00,
        0x20, 0x00, 0x00, 0x00, 0x14, 0x00, 0x00, 0x00, 0x04, 0x00, 0x00, 0x00,
        0x01, 0x00, 0x00, 0x00, 0x74, 0x00, 0x00, 0x00, 0x00, 0x00, 0x00, 0x00,
        0x01, 0x00, 0x00, 0x00, 0x97, 0x1a, 0x82, 0x3b, 0x01, 0x00, 0x00, 0x00,
        0x55, 0x19, 0x0d, 0x3f, 0x01, 0x00, 0x00, 0x00, 0x46, 0x2f, 0xec, 0xbe,
        0x03, 0x00, 0x00, 0x00, 0x98, 0x00, 0x00, 0x00, 0x44, 0x00, 0x00, 0x00,
        0x04, 0x00, 0x00, 0x00, 0x88, 0xff, 0xff, 0xff, 0x00, 0x00, 0x00, 0x08,
        0x10, 0x00, 0x00, 0x00, 0x1c, 0x00, 0x00, 0x00, 0x28, 0x00, 0x00, 0x00,
        0x1c, 0x00, 0x00, 0x00, 0x03, 0x00, 0x00, 0x00, 0x02, 0x00, 0x00, 0x00,
        0x09, 0x00, 0x00, 0x00, 0x08, 0x00, 0x00, 0x00, 0x01, 0x00, 0x00, 0x00,
        0x07, 0x00, 0x00, 0x00, 0x00, 0x00, 0x00, 0x00, 0x04, 0x00, 0x04, 0x00,
        0x04, 0x00, 0x00, 0x00, 0xc4, 0xff, 0xff, 0xff, 0x00, 0x00, 0x00, 0x08,
        0x10, 0x00, 0x00, 0x00, 0x1c, 0x00, 0x00, 0x00, 0x24, 0x00, 0x00, 0x00,
        0x1c, 0x00, 0x00, 0x00, 0x03, 0x00, 0x00, 0x00, 0x01, 0x00, 0x00, 0x00,
        0x06, 0x00, 0x00, 0x00, 0x05, 0x00, 0x00, 0x00, 0x01, 0x00, 0x00, 0x00,
        0x02, 0x00, 0x00, 0x00, 0x00, 0x00, 0x00, 0x00, 0x8e, 0xff, 0xff, 0xff,
        0x00, 0x00, 0x00, 0x01, 0x14, 0x00, 0x18, 0x00, 0x00, 0x00, 0x08, 0x00,
        0x0c, 0x00, 0x07, 0x00, 0x10, 0x00, 0x00, 0x00, 0x00, 0x00, 0x14, 0x00,
        0x14, 0x00, 0x00, 0x00, 0x00, 0x00, 0x00, 0x08, 0x10, 0x00, 0x00, 0x00,
        0x1c, 0x00, 0x00, 0x00, 0x24, 0x00, 0x00, 0x00, 0x1c, 0x00, 0x00, 0x00,
        0x03, 0x00, 0x00, 0x00, 0x00, 0x00, 0x00, 0x00, 0x04, 0x00, 0x00, 0x00,
        0x03, 0x00, 0x00, 0x00, 0x01, 0x00, 0x00, 0x00, 0x01, 0x00, 0x00, 0x00,
        0x00, 0x00, 0x00, 0x00, 0xde, 0xff, 0xff, 0xff, 0x00, 0x00, 0x00, 0x01,
        0x01, 0x00, 0x00, 0x00, 0x04, 0x00, 0x00, 0x00, 0xfa, 0xff, 0xff, 0xff,
        0x00, 0x09, 0x06, 0x00, 0x06, 0x00, 0x05, 0x00, 0x06, 0x00, 0x00, 0x00,
        0x00, 0x09, 0x06, 0x00, 0x08, 0x00, 0x07, 0x00, 0x06, 0x00, 0x00, 0x00,
        0x00, 0x00, 0x00, 0x09
};
unsigned int fc_320_tflite_len = 3016;